<pad>	0
<s>	0
</s>	0
<unk>	0
<ret>	0
<end>	0
<unused0>	0
<unused1>	0
<unused2>	0
<unused3>	0
<unused4>	0
<unused5>	0
<unused6>	0
<unused7>	0
<unused8>	0
<unused9>	0
<unused10>	0
<unused11>	0
<unused12>	0
<unused13>	0
<unused14>	0
<unused15>	0
<unused16>	0
<unused17>	0
<unused18>	0
<unused19>	0
<unused20>	0
<unused21>	0
<unused22>	0
<unused23>	0
<unused24>	0
<unused25>	0
<unused26>	0
<unused27>	0
<unused28>	0
<unused29>	0
<0x00>	0
<0x01>	0
<0x02>	0
<0x03>	0
<0x04>	0
<0x05>	0
<0x06>	0
<0x07>	0
<0x08>	0
<0x09>	0
<0x0A>	0
<0x0B>	0
<0x0C>	0
<0x0D>	0
<0x0E>	0
<0x0F>	0
<0x10>	0
<0x11>	0
<0x12>	0
<0x13>	0
<0x14>	0
<0x15>	0
<0x16>	0
<0x17>	0
<0x18>	0
<0x19>	0
<0x1A>	0
<0x1B>	0
<0x1C>	0
<0x1D>	0
<0x1E>	0
<0x1F>	0
<0x20>	0
<0x21>	0
<0x22>	0
<0x23>	0
<0x24>	0
<0x25>	0
<0x26>	0
<0x27>	0
<0x28>	0
<0x29>	0
<0x2A>	0
<0x2B>	0
<0x2C>	0
<0x2D>	0
<0x2E>	0
<0x2F>	0
<0x30>	0
<0x31>	0
<0x32>	0
<0x33>	0
<0x34>	0
<0x35>	0
<0x36>	0
<0x37>	0
<0x38>	0
<0x39>	0
<0x3A>	0
<0x3B>	0
<0x3C>	0
<0x3D>	0
<0x3E>	0
<0x3F>	0
<0x40>	0
<0x41>	0
<0x42>	0
<0x43>	0
<0x44>	0
<0x45>	0
<0x46>	0
<0x47>	0
<0x48>	0
<0x49>	0
<0x4A>	0
<0x4B>	0
<0x4C>	0
<0x4D>	0
<0x4E>	0
<0x4F>	0
<0x50>	0
<0x51>	0
<0x52>	0
<0x53>	0
<0x54>	0
<0x55>	0
<0x56>	0
<0x57>	0
<0x58>	0
<0x59>	0
<0x5A>	0
<0x5B>	0
<0x5C>	0
<0x5D>	0
<0x5E>	0
<0x5F>	0
<0x60>	0
<0x61>	0
<0x62>	0
<0x63>	0
<0x64>	0
<0x65>	0
<0x66>	0
<0x67>	0
<0x68>	0
<0x69>	0
<0x6A>	0
<0x6B>	0
<0x6C>	0
<0x6D>	0
<0x6E>	0
<0x6F>	0
<0x70>	0
<0x71>	0
<0x72>	0
<0x73>	0
<0x74>	0
<0x75>	0
<0x76>	0
<0x77>	0
<0x78>	0
<0x79>	0
<0x7A>	0
<0x7B>	0
<0x7C>	0
<0x7D>	0
<0x7E>	0
<0x7F>	0
<0x80>	0
<0x81>	0
<0x82>	0
<0x83>	0
<0x84>	0
<0x85>	0
<0x86>	0
<0x87>	0
<0x88>	0
<0x89>	0
<0x8A>	0
<0x8B>	0
<0x8C>	0
<0x8D>	0
<0x8E>	0
<0x8F>	0
<0x90>	0
<0x91>	0
<0x92>	0
<0x93>	0
<0x94>	0
<0x95>	0
<0x96>	0
<0x97>	0
<0x98>	0
<0x99>	0
<0x9A>	0
<0x9B>	0
<0x9C>	0
<0x9D>	0
<0x9E>	0
<0x9F>	0
<0xA0>	0
<0xA1>	0
<0xA2>	0
<0xA3>	0
<0xA4>	0
<0xA5>	0
<0xA6>	0
<0xA7>	0
<0xA8>	0
<0xA9>	0
<0xAA>	0
<0xAB>	0
<0xAC>	0
<0xAD>	0
<0xAE>	0
<0xAF>	0
<0xB0>	0
<0xB1>	0
<0xB2>	0
<0xB3>	0
<0xB4>	0
<0xB5>	0
<0xB6>	0
<0xB7>	0
<0xB8>	0
<0xB9>	0
<0xBA>	0
<0xBB>	0
<0xBC>	0
<0xBD>	0
<0xBE>	0
<0xBF>	0
<0xC0>	0
<0xC1>	0
<0xC2>	0
<0xC3>	0
<0xC4>	0
<0xC5>	0
<0xC6>	0
<0xC7>	0
<0xC8>	0
<0xC9>	0
<0xCA>	0
<0xCB>	0
<0xCC>	0
<0xCD>	0
<0xCE>	0
<0xCF>	0
<0xD0>	0
<0xD1>	0
<0xD2>	0
<0xD3>	0
<0xD4>	0
<0xD5>	0
<0xD6>	0
<0xD7>	0
<0xD8>	0
<0xD9>	0
<0xDA>	0
<0xDB>	0
<0xDC>	0
<0xDD>	0
<0xDE>	0
<0xDF>	0
<0xE0>	0
<0xE1>	0
<0xE2>	0
<0xE3>	0
<0xE4>	0
<0xE5>	0
<0xE6>	0
<0xE7>	0
<0xE8>	0
<0xE9>	0
<0xEA>	0
<0xEB>	0
<0xEC>	0
<0xED>	0
<0xEE>	0
<0xEF>	0
<0xF0>	0
<0xF1>	0
<0xF2>	0
<0xF3>	0
<0xF4>	0
<0xF5>	0
<0xF6>	0
<0xF7>	0
<0xF8>	0
<0xF9>	0
<0xFA>	0
<0xFB>	0
<0xFC>	0
<0xFD>	0
<0xFE>	0
<0xFF>	0
，	-3.15793
。	-3.99821
▁	-4.10293
.	-4.16555
,	-4.21637
的	-4.42145
▁the	-4.65069
、	-4.78827
0	-4.7928
1	-4.86248
s	-4.96844
2	-5.09314
▁to	-5.15505
▁and	-5.19447
▁of	-5.28889
▁a	-5.40071
在	-5.64046
▁in	-5.64674
和	-5.65921
-	-5.71586
3	-5.7311
:	-5.74285
“	-5.75246
5	-5.80805
了	-5.84216
4	-5.98831
_	-5.99532
是	-6.03233
▁is	-6.05575
9	-6.09183
6	-6.16045
▁for	-6.16612
8	-6.16891
：	-6.17163
)	-6.21824
▁you	-6.222
”	-6.22675
▁that	-6.23267
’	-6.26192
(	-6.26463
7	-6.29962
▁with	-6.42363
有	-6.42706
中	-6.44808
我	-6.46282
▁on	-6.50938
'	-6.52405
？	-6.52827
▁I	-6.56765
▁it	-6.58954
年	-6.62157
为	-6.62877
（	-6.66943
与	-6.67016
他	-6.68577
上	-6.68885
人	-6.69934
▁are	-6.73323
不	-6.7485
▁be	-6.74953
▁your	-6.74977
对	-6.75116
/	-6.75157
;	-6.75876
等	-6.76497
▁as	-6.76855
t	-6.77859
A	-6.79235
▁(	-6.81554
；	-6.82914
大	-6.84639
▁was	-6.86223
）	-6.86656
ing	-6.869
也	-6.86949
而	-6.93437
一	-6.93875
你	-6.93878
到	-6.96609
?	-6.97516
ed	-6.97944
▁this	-6.98142
以	-6.99347
▁have	-6.99717
就	-7.00385
《	-7.01879
▁from	-7.02101
"	-7.02655
▁or	-7.03592
月	-7.03743
▁=	-7.03817
d	-7.04684
▁at	-7.06091
！	-7.06202
地	-7.08764
▁can	-7.09249
后	-7.1191
要	-7.12986
时	-7.13028
▁The	-7.14238
▁by	-7.14396
从	-7.1746
▁not	-7.17956
》	-7.18111
之	-7.18326
将	-7.20961
来	-7.23323
。”	-7.23385
▁will	-7.23949
▁an	-7.25018
用	-7.25262
日	-7.26928
小	-7.27428
都	-7.27703
>	-7.28065
}	-7.28623
或	-7.29044
说	-7.30014
▁we	-7.31152
!	-7.3328
我们	-7.33334
被	-7.34098
可以	-7.35357
她	-7.35693
但	-7.3594
去	-7.36476
下	-7.38269
会	-7.3921
一个	-7.39616
Q	-7.4113
及	-7.42267
好	-7.44022
多	-7.44025
这	-7.45121
可	-7.45392
：“	-7.46966
▁all	-7.50141
a	-7.50185
其	-7.50957
<	-7.52731
性	-7.53931
▁but	-7.55274
工作	-7.55658
▁he	-7.55762
里	-7.57564
▁has	-7.58852
于	-7.58914
▁they	-7.58917
没有	-7.59173
▁his	-7.59298
▁"	-7.59359
道	-7.59505
新	-7.59901
▁more	-7.60115
能	-7.61129
把	-7.6118
这个	-7.61483
自己	-7.61783
者	-7.62105
天	-7.62548
高	-7.62842
又	-7.62948
The	-7.63516
出	-7.63761
就是	-7.64762
子	-7.65573
进行	-7.65614
▁their	-7.65894
着	-7.66094
并	-7.66147
水	-7.67268
三	-7.67775
▁one	-7.67845
公司	-7.6793
er	-7.68214
m	-7.68455
▁our	-7.68473
I	-7.68677
那	-7.68795
他们	-7.70205
{	-7.7191
ly	-7.72673
▁out	-7.73184
中国	-7.73571
得	-7.7385
y	-7.73932
%	-7.74353
个	-7.74767
▁up	-7.76479
▁which	-7.7657
▁my	-7.76738
▁“	-7.77968
家	-7.78374
▁about	-7.78548
▁were	-7.78596
e	-7.78994
▁time	-7.79084
还	-7.79802
做	-7.82597
▁so	-7.82772
n	-7.83351
企业	-7.83406
如	-7.84632
▁{	-7.84719
前	-7.84937
如果	-7.85349
所	-7.85353
过	-7.85794
=	-7.85998
▁her	-7.86075
点	-7.86081
但是	-7.87194
S	-7.87499
分	-7.88177
▁had	-7.88542
▁do	-7.8868
王	-7.8884
i	-7.89456
re	-7.89804
[	-7.90424
由	-7.90878
▁also	-7.90936
▁A	-7.90995
使用	-7.91158
向	-7.91443
通过	-7.91709
]	-7.9206
="	-7.92326
▁if	-7.9243
更	-7.92913
x	-7.93385
吗	-7.94589
所以	-7.9495
无	-7.9532
再	-7.95397
▁when	-7.97353
因为	-7.97424
·	-7.97586
C	-7.98636
需要	-7.99006
▁like	-7.9902
看	-7.99022
▁get	-7.99023
\	-7.99628
长	-7.99763
自	-7.99814
本	-8.00113
还是	-8.00654
它	-8.00889
▁$	-8.0142
心	-8.01656
呢	-8.02179
的时候	-8.02353
▁been	-8.02682
成	-8.03165
r	-8.03605
▁new	-8.03667
比	-8.03677
法	-8.04017
▁who	-8.04201
当	-8.0443
问题	-8.04842
以及	-8.05737
▁It	-8.05888
内	-8.05913
生	-8.06526
▁what	-8.06719
▁them	-8.07096
▁\	-8.07251
市	-8.07598
二	-8.07601
金	-8.07654
山	-8.07678
给	-8.07768
▁there	-8.07837
最	-8.08588
这些	-8.08718
让	-8.09675
现在	-8.10796
的人	-8.10854
名	-8.10963
▁would	-8.10989
▁other	-8.11039
▁into	-8.1226
想	-8.12278
化	-8.12601
▁some	-8.12632
很	-8.12925
老	-8.13175
吧	-8.13286
产品	-8.13784
▁me	-8.138
文	-8.13935
都是	-8.14163
一些	-8.14193
▁'	-8.14556
啊	-8.14883
外	-8.15172
已经	-8.15228
B	-8.16296
已	-8.16433
系统	-8.16528
——	-8.16696
服务	-8.17326
in	-8.18121
时间	-8.18514
▁said	-8.18615
</	-8.19242
该	-8.19751
打	-8.19756
「	-8.20324
行	-8.20366
元	-8.20598
学	-8.22119
▁than	-8.22353
p	-8.2253
起	-8.2282
要求	-8.22831
使	-8.2289
这种	-8.23052
c	-8.2308
▁just	-8.23417
头	-8.23461
发	-8.23627
*	-8.23702
管理	-8.23764
▁no	-8.23773
”，	-8.23839
至	-8.23859
李	-8.23917
技术	-8.24241
也是	-8.24268
开	-8.243
四	-8.24637
市场	-8.24788
正	-8.26016
▁In	-8.26067
国	-8.26136
▁over	-8.2617
▁she	-8.26529
花	-8.27288
▁any	-8.27337
张	-8.27511
▁make	-8.27802
或者	-8.29135
▁only	-8.29379
？”	-8.2957
b	-8.29657
德	-8.29929
发展	-8.30297
区	-8.30541
▁We	-8.30623
事	-8.3064
国家	-8.30717
D	-8.30844
则	-8.30988
什么	-8.31097
G	-8.31106
机	-8.31355
白	-8.3196
▁This	-8.32137
);	-8.32185
……	-8.32438
光	-8.32522
对于	-8.32655
车	-8.32967
作为	-8.33081
▁how	-8.33362
而且	-8.33523
g	-8.33931
▁people	-8.34361
al	-8.34547
力	-8.34637
▁use	-8.34696
选择	-8.34947
$	-8.35305
#	-8.35385
不是	-8.36109
门	-8.36395
之后	-8.36546
同	-8.36845
没	-8.36869
手	-8.37011
马	-8.37085
▁may	-8.37465
那么	-8.38611
”。	-8.38633
▁first	-8.38787
却	-8.38855
不能	-8.39022
提供	-8.39105
全	-8.39109
开始	-8.39157
+	-8.39292
▁these	-8.39381
海	-8.39449
h	-8.39927
先	-8.39986
风	-8.40288
路	-8.40319
这样	-8.40332
es	-8.40622
西	-8.40999
的话	-8.41191
林	-8.42232
活动	-8.42338
▁its	-8.42852
五	-8.4311
才	-8.43158
项目	-8.43207
特	-8.4357
面	-8.43581
()	-8.43675
入	-8.43916
▁You	-8.43936
f	-8.44207
信息	-8.44859
▁most	-8.44956
▁-	-8.45114
▁us	-8.45466
加	-8.45511
安	-8.45622
同时	-8.45977
▁need	-8.46032
因此	-8.46159
气	-8.46202
两	-8.46462
因	-8.46529
号	-8.46615
明	-8.468
应	-8.46817
只	-8.46877
▁two	-8.47039
万	-8.47225
学习	-8.47269
T	-8.47312
重	-8.47398
还有	-8.47417
if	-8.47492
卡	-8.47918
拉	-8.48139
主	-8.48186
可能	-8.48643
神	-8.48814
▁S	-8.49067
o	-8.49306
云	-8.49329
表示	-8.49508
部	-8.49601
能够	-8.49661
如何	-8.49676
▁could	-8.50083
方	-8.50467
▁He	-8.50518
克	-8.50598
很多	-8.50668
ll	-8.5071
式	-8.51188
各	-8.51401
城	-8.51496
！”	-8.51736
).	-8.52077
具有	-8.52105
即	-8.52253
设计	-8.52397
▁then	-8.52644
美	-8.52854
教育	-8.52854
请	-8.52918
斯	-8.52921
一般	-8.52975
▁work	-8.5307
▁way	-8.53099
军	-8.53108
像	-8.53146
生活	-8.53179
ve	-8.53185
自己的	-8.53388
k	-8.53391
▁&	-8.53548
不过	-8.53595
书	-8.53838
▁well	-8.53908
作	-8.54301
网	-8.54415
▁after	-8.5534
▁B	-8.55345
然后	-8.55782
▁know	-8.55908
—	-8.56151
吃	-8.56456
▁class	-8.56468
量	-8.56602
走	-8.56633
回	-8.56739
非	-8.56941
return	-8.56983
目前	-8.57009
太	-8.57146
▁very	-8.57211
度	-8.5737
此	-8.57423
线	-8.57523
方法	-8.57558
P	-8.5764
▁back	-8.57702
根据	-8.57724
便	-8.57904
带	-8.57932
美国	-8.58083
▁him	-8.58104
您	-8.58148
清	-8.58233
▁help	-8.58432
跟	-8.58559
),	-8.58712
',	-8.58728
包括	-8.58987
其他	-8.59689
相	-8.597
研究	-8.59703
▁through	-8.60008
平	-8.60015
id	-8.60101
组织	-8.60152
进	-8.60162
安全	-8.60174
▁should	-8.602
com	-8.60244
南	-8.60298
不同	-8.6077
口	-8.60944
数	-8.61043
▁many	-8.61048
见	-8.61113
為	-8.61289
红	-8.61426
直接	-8.61497
经济	-8.61913
行业	-8.62443
第	-8.62482
利	-8.62893
管	-8.62968
▁C	-8.62982
公	-8.63163
成为	-8.63204
E	-8.63517
非常	-8.6357
型	-8.63605
▁[	-8.63673
只有	-8.63689
▁where	-8.63697
M	-8.63902
石	-8.63925
▁see	-8.63927
▁want	-8.63986
治疗	-8.64046
由于	-8.64079
self	-8.64194
能力	-8.64196
其中	-8.64275
爱	-8.64546
平台	-8.64737
大家	-8.64792
米	-8.64796
虽然	-8.648
方式	-8.6487
一下	-8.65018
东	-8.65114
位	-8.65325
▁now	-8.65336
火	-8.65397
龙	-8.65702
情况	-8.65791
经	-8.66354
实现	-8.67077
▁good	-8.67219
or	-8.67309
数据	-8.67547
主要	-8.67615
这是	-8.67936
他的	-8.68064
品牌	-8.68297
总	-8.68336
方面	-8.6844
中的	-8.68567
台	-8.68574
一样	-8.68852
钱	-8.68858
文化	-8.69065
F	-8.69094
.”	-8.69153
▁best	-8.69286
图	-8.69304
专业	-8.69308
设备	-8.69326
世界	-8.69633
▁–	-8.6976
▁even	-8.69823
真	-8.70045
K	-8.70046
局	-8.70064
强	-8.7015
县	-8.70454
只是	-8.71031
低	-8.71426
黄	-8.71522
...	-8.71623
功能	-8.71654
▁If	-8.71782
死	-8.71843
▁much	-8.71847
▁here	-8.71854
投资	-8.71855
提高	-8.71888
单	-8.71984
to	-8.7211
快	-8.72171
游戏	-8.72176
建设	-8.72345
们	-8.72375
周	-8.72471
类	-8.72475
通	-8.72582
发现	-8.72632
與	-8.7289
社会	-8.72915
孩子	-8.72922
未	-8.73167
华	-8.73279
▁before	-8.73296
价格	-8.73342
次	-8.73519
▁don	-8.73783
th	-8.73804
比较	-8.73927
我的	-8.7432
流	-8.74537
",	-8.74582
学校	-8.74979
问	-8.75002
▁re	-8.75141
干	-8.75959
">	-8.76053
L	-8.76099
认为	-8.76186
('	-8.76312
原	-8.76368
▁years	-8.76558
v	-8.76608
学生	-8.76632
体	-8.76662
」	-8.76717
怎么	-8.76747
出现	-8.76755
物	-8.7676
不要	-8.76773
器	-8.76778
▁take	-8.77358
期	-8.77411
身	-8.77494
少	-8.77631
黑	-8.77819
▁day	-8.77856
In	-8.77913
▁because	-8.77918
制	-8.77968
处	-8.78015
关于	-8.78061
你的	-8.78108
▁such	-8.78492
▁used	-8.78579
ers	-8.78592
陈	-8.78831
分析	-8.78888
▁find	-8.79006
支持	-8.79022
l	-8.79165
用户	-8.79223
受	-8.7928
按	-8.79444
达	-8.79645
政府	-8.79682
），	-8.79749
内容	-8.79846
▁home	-8.80117
中心	-8.80187
连	-8.80253
希望	-8.80338
放	-8.80474
定	-8.80731
处理	-8.80919
H	-8.81074
第一	-8.8111
油	-8.81207
科	-8.81402
国际	-8.81551
热	-8.81638
站	-8.81825
on	-8.81858
为了	-8.81882
省	-8.82141
看到	-8.82318
X	-8.82358
控制	-8.82528
部分	-8.82716
▁go	-8.82838
影响	-8.83123
▁right	-8.83183
：「	-8.8335
最后	-8.83359
声	-8.83478
率	-8.83527
病	-8.83607
//	-8.83716
R	-8.8389
We	-8.83958
▁using	-8.84123
】	-8.84138
▁down	-8.84186
其实	-8.84343
所有	-8.84518
进入	-8.84531
转	-8.84723
你们	-8.84732
("	-8.84812
▁year	-8.84937
N	-8.85018
信	-8.85027
▁each	-8.85147
生产	-8.85171
应该	-8.85284
刘	-8.8529
州	-8.85367
女	-8.85448
教	-8.85621
▁data	-8.85638
且	-8.85749
字	-8.8597
大学	-8.86064
那些	-8.86159
▁life	-8.86562
工程	-8.86714
▁made	-8.86781
若	-8.86898
正在	-8.86991
六	-8.87195
get	-8.87196
超	-8.87459
工	-8.87655
网络	-8.87761
▁great	-8.87815
这一	-8.87874
环境	-8.88035
阿	-8.88062
北京	-8.88319
板	-8.88582
之前	-8.88618
甚至	-8.88884
买	-8.88977
罗	-8.89018
近	-8.89022
建	-8.89049
城市	-8.8907
感	-8.8916
▁being	-8.89238
片	-8.89282
完成	-8.89444
有些	-8.89453
计划	-8.8946
起来	-8.89653
儿	-8.89696
的是	-8.89781
會	-8.89824
称	-8.90204
手机	-8.9035
以后	-8.90648
商	-8.90658
▁P	-8.90745
表	-8.90874
兵	-8.91118
~	-8.9114
@	-8.91219
V	-8.91342
合	-8.91384
▁those	-8.91498
江	-8.91737
▁while	-8.91739
包	-8.91773
必须	-8.91847
业务	-8.91857
立	-8.92105
div	-8.92108
到了	-8.92265
关系	-8.92389
人员	-8.92497
飞	-8.92576
获得	-8.92608
u	-8.92764
检查	-8.92814
结果	-8.9284
每	-8.92927
战	-8.93197
▁T	-8.9326
尔	-8.93338
采用	-8.9356
各种	-8.93774
):	-8.93838
建议	-8.93851
个人	-8.9388
木	-8.93987
世	-8.94054
级	-8.94325
一种	-8.94375
情	-8.94516
色	-8.9462
▁between	-8.94821
收	-8.94843
继续	-8.94901
求	-8.95166
酒	-8.9533
材料	-8.95477
able	-8.95533
血	-8.95586
空	-8.95672
来说	-8.95797
那个	-8.9582
民	-8.95923
可是	-8.95936
送	-8.95951
报	-8.9604
▁off	-8.96306
不会	-8.96455
▁set	-8.96522
选	-8.96541
…	-8.96764
效果	-8.96792
提升	-8.97138
▁long	-8.97218
北	-8.97327
利用	-8.97407
▁same	-8.97557
來	-8.97635
比如	-8.97679
▁different	-8.97684
电	-8.97849
import	-8.97914
标准	-8.97928
写	-8.98019
對	-8.98379
双	-8.984
著	-8.98443
才能	-8.98501
条	-8.98551
了解	-8.98556
▁own	-8.98622
This	-8.98655
▁around	-8.98683
取	-8.9872
一次	-8.98729
w	-8.98894
皮	-8.99003
精神	-8.99168
球	-8.99228
▁E	-8.99438
除了	-8.99483
官	-8.9958
费	-8.99825
两个	-8.99945
眼	-9.00095
房	-9.00141
听	-9.00168
并且	-9.00203
村	-9.00296
科技	-9.00333
青	-9.00396
增加	-9.0052
叫	-9.00576
队	-9.00658
常	-9.00689
人们	-9.00717
无法	-9.00824
变	-9.00827
言	-9.00911
师	-9.0108
W	-9.01102
name	-9.01131
▁But	-9.01446
▁world	-9.0179
难	-9.01984
▁information	-9.02003
别	-9.02196
▁D	-9.02292
合作	-9.02355
为什么	-9.02423
深	-9.02492
发生	-9.02503
以上	-9.02578
河	-9.02668
public	-9.02683
古	-9.02757
当然	-9.02872
知道	-9.02958
▁last	-9.02996
一直	-9.03037
時	-9.03042
▁still	-9.03124
是否	-9.03164
半	-9.03277
ation	-9.03331
▁+	-9.0335
种	-9.03468
意	-9.03531
布	-9.03552
约	-9.03657
▁every	-9.03848
O	-9.04075
▁un	-9.04196
自然	-9.04299
操作	-9.04395
政策	-9.0444
共	-9.0454
药	-9.04647
上的	-9.04668
,”	-9.04815
一起	-9.04933
任何	-9.04982
->	-9.05138
▁name	-9.05154
岁	-9.05243
组	-9.05865
▁think	-9.05927
开展	-9.06006
玩	-9.06036
說	-9.06036
."	-9.06164
It	-9.06215
应用	-9.06375
场	-9.06444
单位	-9.0646
之间	-9.06516
得到	-9.06559
香	-9.06853
▁And	-9.06898
患者	-9.07023
相关	-9.07115
You	-9.07197
汽车	-9.0736
▁▁▁	-9.07389
．	-9.07489
权	-9.07633
▁both	-9.0766
▁look	-9.07791
指	-9.07795
▁For	-9.07827
动	-9.07837
▁They	-9.07999
‘	-9.08369
z	-9.0845
模式	-9.08504
乐	-9.08554
全国	-9.08634
拥有	-9.08677
软件	-9.08726
品	-9.08754
▁going	-9.08933
星	-9.08945
更加	-9.08966
曾	-9.09133
玉	-9.09258
出来	-9.09394
代	-9.09497
今年	-9.09528
▁website	-9.09611
住	-9.09676
作用	-9.09725
八	-9.09961
的问题	-9.09991
日本	-9.1003
按照	-9.1004
版	-9.10313
间	-9.10317
老师	-9.1061
▁To	-9.10645
销售	-9.10653
。」	-9.10744
交	-9.10751
j	-9.10884
這	-9.10884
找	-9.11
远	-9.11007
▁high	-9.11121
机构	-9.11136
直	-9.11141
令	-9.1117
://	-9.11239
is	-9.11244
▁too	-9.11399
需求	-9.11518
反	-9.11542
完全	-9.11596
健康	-9.11649
讲	-9.11689
▁place	-9.11708
值	-9.11857
派	-9.11907
保护	-9.11965
首	-9.11996
杨	-9.12005
只要	-9.12053
九	-9.12119
达到	-9.12128
银行	-9.12477
▁did	-9.125
解决	-9.1271
朝	-9.12818
▁p	-9.12823
产业	-9.12951
集	-9.13039
网站	-9.13054
成功	-9.13336
基本	-9.13446
经过	-9.13519
边	-9.13773
今天	-9.13961
七	-9.14126
空间	-9.14212
医院	-9.14225
▁‘	-9.14326
▁free	-9.14344
院	-9.14522
谁	-9.1453
阳	-9.14536
▁really	-9.14636
店	-9.14679
结构	-9.147
有关	-9.14703
何	-9.1476
微	-9.14833
波	-9.14951
资源	-9.14981
曰	-9.15202
传	-9.15356
J	-9.15468
装	-9.15473
將	-9.15685
▁i	-9.15784
▁She	-9.15799
知	-9.16048
▁love	-9.16098
创新	-9.16117
均	-9.16246
茶	-9.16263
节	-9.16605
先生	-9.16712
叶	-9.1675
客户	-9.16817
一点	-9.16883
end	-9.16901
决定	-9.17019
代表	-9.17156
保	-9.17184
接	-9.17334
▁might	-9.17459
▁little	-9.17494
就会	-9.17593
目标	-9.17614
差	-9.17669
ion	-9.17729
▁under	-9.1778
考	-9.17832
喜欢	-9.17866
易	-9.1787
▁part	-9.17974
▁few	-9.17975
▁G	-9.18124
交易	-9.18178
第二	-9.18228
▁come	-9.18243
▁number	-9.18317
之一	-9.18356
觉得	-9.18388
任	-9.18521
盘	-9.1856
上海	-9.18568
如此	-9.18603
▁things	-9.18618
▁three	-9.1863
存在	-9.18652
▁found	-9.18685
质量	-9.18763
def	-9.18819
语	-9.18988
落	-9.19027
形成	-9.19066
系	-9.19101
话	-9.19133
班	-9.19244
地区	-9.19407
▁next	-9.19558
【	-9.19563
往	-9.19572
鱼	-9.19811
水平	-9.1986
条件	-9.19989
集团	-9.20253
春	-9.20286
全球	-9.20398
li	-9.20513
宝	-9.20634
於	-9.20639
▁business	-9.2066
▁always	-9.2075
建立	-9.20782
越	-9.20977
If	-9.21101
百	-9.21221
史	-9.21268
▁R	-9.21278
然	-9.21318
▁M	-9.21324
随着	-9.21325
%，	-9.21338
修	-9.21463
不断	-9.21597
当时	-9.21622
客	-9.21917
故	-9.21964
▁without	-9.22048
另外	-9.22115
格	-9.22324
拿	-9.22337
食	-9.22435
文件	-9.22437
提	-9.22462
群	-9.22494
保持	-9.22546
What	-9.22641
）。	-9.22656
改	-9.22696
▁something	-9.22709
草	-9.22786
後	-9.22854
运动	-9.22905
▁de	-9.2297
真的	-9.22989
安装	-9.23061
据	-9.23066
业	-9.23096
政治	-9.23118
调	-9.23232
满	-9.23245
制度	-9.23294
data	-9.23319
成本	-9.23377
员	-9.23387
坐	-9.23395
铁	-9.2348
参加	-9.23492
感觉	-9.23762
基	-9.23819
卷	-9.23878
▁family	-9.23957
▁must	-9.24189
努力	-9.24445
Y	-9.24603
&	-9.24723
是一个	-9.24723
朋友	-9.25007
几	-9.25011
整个	-9.25103
地方	-9.25165
这样的	-9.25236
▁during	-9.25302
土	-9.25463
this	-9.25487
镇	-9.25565
▁does	-9.25726
ic	-9.25828
▁sure	-9.25867
亿元	-9.26106
武	-9.26124
▁function	-9.26209
▁am	-9.26304
雷	-9.26355
▁better	-9.26377
接受	-9.26396
解	-9.26425
▁self	-9.26572
en	-9.26587
行为	-9.26629
奇	-9.26758
▁F	-9.27059
历史	-9.27194
命	-9.27412
▁water	-9.27461
亦	-9.27556
左右	-9.27645
志	-9.27689
资金	-9.27726
不可	-9.27859
后来	-9.27865
and	-9.28193
具体	-9.28238
田	-9.28249
▁H	-9.28302
man	-9.28328
然而	-9.2843
价值	-9.28515
办	-9.28601
首先	-9.28606
();	-9.2875
画	-9.28826
特别	-9.28913
帮助	-9.2898
雨	-9.29015
我国	-9.29246
产生	-9.29506
▁never	-9.29809
全部	-9.29911
风险	-9.30004
源	-9.30092
任务	-9.30096
防	-9.30113
▁another	-9.30152
开发	-9.30204
底	-9.3021
倒	-9.30325
换	-9.3034
%。	-9.3038
冷	-9.3045
set	-9.30458
ity	-9.30477
推荐	-9.30521
准备	-9.30555
科学	-9.30563
最终	-9.30651
▁end	-9.30654
汉	-9.30675
▁experience	-9.30712
未来	-9.30767
价	-9.30943
许多	-9.31026
理	-9.31122
层	-9.31164
不知道	-9.31521
▁There	-9.31659
除	-9.318
家庭	-9.31838
更多	-9.31846
件	-9.31857
某	-9.31998
▁keep	-9.32072
▁▁▁▁	-9.32148
刚	-9.32282
::	-9.32362
雪	-9.32366
股	-9.32392
关	-9.32419
款	-9.32431
亚	-9.32518
粉	-9.32617
掉	-9.32633
坚持	-9.32741
注意	-9.32843
君	-9.32873
显示	-9.32883
▁value	-9.32975
▁game	-9.33041
U	-9.33087
十分	-9.33199
导致	-9.33278
▁As	-9.33424
杀	-9.33496
提出	-9.3361
培训	-9.33627
夫	-9.3381
肉	-9.34211
for	-9.34385
▁online	-9.34516
早	-9.3457
金融	-9.34677
▁K	-9.34679
Z	-9.34763
设置	-9.34883
沙	-9.34892
领域	-9.34933
端	-9.34939
it	-9.35028
▁N	-9.35031
根	-9.3504
而是	-9.3517
新的	-9.35293
跑	-9.35363
国内	-9.3537
▁So	-9.35407
–	-9.3544
▁give	-9.35455
治	-9.3565
▁*	-9.35721
▁type	-9.35919
▁service	-9.35929
工业	-9.35943
無	-9.3595
▁New	-9.36071
也有	-9.36085
的地方	-9.36132
读	-9.36147
增长	-9.36148
▁order	-9.36175
想要	-9.36204
执行	-9.36326
全面	-9.36327
游	-9.3638
推	-9.36422
团	-9.36486
论	-9.36502
夜	-9.36524
经营	-9.3653
团队	-9.36693
')	-9.36723
期间	-9.36738
共同	-9.36764
调整	-9.3679
申请	-9.36793
它们	-9.36832
十	-9.3688
int	-9.36941
证	-9.36957
树	-9.3696
活	-9.37002
思	-9.37012
菜	-9.37086
▁small	-9.37102
▁man	-9.37283
介绍	-9.373
压	-9.37404
保证	-9.37719
联	-9.37727
初	-9.37727
章	-9.37843
持续	-9.37873
▁<	-9.37894
▁again	-9.38056
知识	-9.38128
报告	-9.38153
实施	-9.38166
部门	-9.38269
购买	-9.38522
牌	-9.38541
室	-9.38576
an	-9.38577
服	-9.38617
▁L	-9.38638
巴	-9.38662
刀	-9.38703
查	-9.38769
人的	-9.38778
形	-9.38838
▁system	-9.38862
牛	-9.38876
退	-9.38935
精	-9.3903
电脑	-9.3905
保障	-9.39062
尼	-9.39135
the	-9.39165
乱	-9.39212
▁say	-9.3941
▁important	-9.39487
这么	-9.39582
▁since	-9.396
吴	-9.39641
音	-9.39654
基础	-9.39684
▁start	-9.39992
都有	-9.40005
塔	-9.40063
超过	-9.40142
一切	-9.40177
实	-9.4022
是不是	-9.40271
亲	-9.40276
笑	-9.40291
▁able	-9.4042
段	-9.40465
造成	-9.40484
突然	-9.40495
一定要	-9.40569
诗	-9.40682
记者	-9.40688
▁show	-9.40707
别人	-9.40708
记	-9.40759
▁away	-9.40767
法律	-9.41
▁available	-9.41108
`	-9.41191
▁email	-9.4124
智能	-9.41256
楼	-9.41259
▁days	-9.41318
义	-9.4132
词	-9.4132
做好	-9.4133
算	-9.41452
余	-9.41499
料	-9.41519
英	-9.4152
收入	-9.41535
▁lot	-9.41564
重要	-9.41565
减少	-9.41638
恩	-9.41662
关注	-9.41663
视频	-9.41671
博	-9.41991
▁top	-9.42031
苏	-9.42071
我們	-9.42071
加强	-9.4212
待	-9.42136
宗	-9.42185
唐	-9.42286
受到	-9.4235
经常	-9.42423
赵	-9.42452
--	-9.42463
里面	-9.42622
▁company	-9.42862
旅游	-9.42977
長	-9.4301
text	-9.43096
破	-9.43115
配	-9.43133
le	-9.43197
重点	-9.4333
改变	-9.43487
一定	-9.43523
留	-9.43583
每天	-9.43631
参与	-9.4367
▁team	-9.43728
照	-9.43747
To	-9.43754
负责	-9.43868
现场	-9.43975
有效	-9.44112
只能	-9.4414
体系	-9.44373
,"	-9.44581
福	-9.44592
下载	-9.44619
角	-9.44721
原因	-9.44764
建筑	-9.44826
过去	-9.44828
▁money	-9.44934
商品	-9.44949
作品	-9.45057
政	-9.45068
散	-9.45165
人才	-9.45277
过程中	-9.45282
医生	-9.45484
属于	-9.45566
灵	-9.45588
校	-9.45597
理论	-9.45724
快速	-9.45732
看看	-9.45859
经验	-9.45887
教师	-9.45909
艺术	-9.45944
方案	-9.4595
推动	-9.45969
完	-9.46014
How	-9.46052
并不	-9.46174
失	-9.46267
来自	-9.46269
▁—	-9.46316
就可以	-9.46341
复	-9.46502
脚	-9.46504
甲	-9.46509
避免	-9.46539
这里	-9.46555
促进	-9.4657
的东西	-9.46619
离	-9.46991
投	-9.47016
进一步	-9.47035
卖	-9.47064
交流	-9.47094
><	-9.47186
毛	-9.472
足	-9.4725
莫	-9.4727
▁case	-9.47356
状态	-9.47359
歌	-9.47386
▁Re	-9.47448
占	-9.47488
排	-9.47504
学院	-9.47548
纳	-9.47633
党	-9.47634
士	-9.47642
考虑	-9.47688
▁e	-9.47826
项	-9.47913
专家	-9.47913
赛	-9.4795
传统	-9.47951
维	-9.48061
每个	-9.48084
▁cookies	-9.48166
冲	-9.48279
找到	-9.48311
今	-9.48328
我们的	-9.48349
体验	-9.48393
兰	-9.48552
不好	-9.48616
果	-9.4865
船	-9.48702
说明	-9.48727
理解	-9.48868
▁change	-9.48885
從	-9.48908
检测	-9.48927
　	-9.4893
▁full	-9.49034
好的	-9.49191
身体	-9.49221
综合	-9.49226
考试	-9.49292
▁U	-9.49325
us	-9.49365
变化	-9.49375
▁got	-9.49427
重新	-9.49557
发布	-9.49646
轻	-9.49671
剑	-9.49683
也不	-9.49757
于是	-9.49767
el	-9.49794
制作	-9.4983
运行	-9.49872
▁feel	-9.5002
必	-9.50059
氏	-9.50064
▁per	-9.50096
例	-9.50144
正常	-9.50229
东西	-9.50314
守	-9.50327
归	-9.50419
》，	-9.50445
消费	-9.50494
胡	-9.50805
我是	-9.5082
如果你	-9.51027
基金	-9.51038
▁@	-9.51053
长期	-9.51082
▁put	-9.51138
方向	-9.51255
会议	-9.5129
积极	-9.51303
out	-9.51354
ment	-9.51409
我想	-9.51483
极	-9.51583
男	-9.5162
电子	-9.51643
class	-9.51781
多少	-9.51812
座	-9.51814
梦	-9.51964
▁site	-9.5198
千	-9.52031
from	-9.5207
up	-9.52089
优势	-9.52093
用于	-9.52101
奥	-9.52123
压力	-9.52134
居	-9.52192
确定	-9.52225
工具	-9.52371
也可以	-9.52388
招	-9.52518
機	-9.52527
以前	-9.52528
望	-9.52656
降低	-9.52661
▁open	-9.52739
安排	-9.52755
ive	-9.52756
分享	-9.52853
及时	-9.52993
电影	-9.53018
都会	-9.5302
▁play	-9.5303
系列	-9.53156
▁When	-9.53179
是什么	-9.53211
急	-9.53227
不仅	-9.53265
等等	-9.53283
▁provide	-9.53471
灯	-9.53507
喝	-9.53568
切	-9.53588
假	-9.53611
封	-9.53615
例如	-9.53651
养	-9.53697
▁hand	-9.53711
有人	-9.53739
▁against	-9.5378
副	-9.53833
领导	-9.53837
实际	-9.53852
伤	-9.53955
自由	-9.5398
松	-9.54001
拍	-9.5401
過	-9.54048
▁support	-9.54336
广	-9.54437
以下	-9.54492
结	-9.5455
type	-9.54583
也会	-9.54595
有点	-9.54653
补	-9.54679
▁test	-9.54705
明显	-9.54734
胜	-9.54743
广告	-9.5475
似乎	-9.54823
规划	-9.54842
万元	-9.54855
▁including	-9.54862
苦	-9.54957
结合	-9.55019
责任	-9.5506
题	-9.55094
香港	-9.55115
联系	-9.5527
措施	-9.55327
▁until	-9.55354
▁within	-9.55363
此外	-9.5538
表现	-9.55389
▁state	-9.55389
▁group	-9.55528
一个人	-9.55619
思想	-9.55678
▁process	-9.55698
▁local	-9.55746
资料	-9.5575
规定	-9.55774
寒	-9.55905
过程	-9.55916
▁looking	-9.5596
夏	-9.55965
自动	-9.5597
升	-9.5603
教学	-9.56126
宋	-9.56135
针对	-9.56161
套	-9.56228
朱	-9.56253
行动	-9.56354
靠	-9.56394
简单	-9.56412
的事情	-9.56417
最好	-9.56456
调查	-9.56483
存	-9.56499
▁create	-9.5658
制造	-9.56583
|	-9.56613
运	-9.56707
分钟	-9.56744
圣	-9.56788
齐	-9.56801
▁working	-9.56834
第三	-9.56896
骨	-9.56907
var	-9.56913
现代	-9.56939
▁=>	-9.56969
▁left	-9.57005
案	-9.57013
短	-9.57062
是一种	-9.57247
最近	-9.57308
严重	-9.57318
▁making	-9.57374
列	-9.5738
速度	-9.57403
他们的	-9.57451
员工	-9.57505
尽	-9.57514
欲	-9.57567
不得	-9.57581
))	-9.57606
因素	-9.57693
中央	-9.57806
宁	-9.57854
货	-9.57942
穿	-9.57992
取得	-9.58077
加入	-9.58166
ness	-9.5817
时代	-9.58233
素	-9.58272
礼	-9.58362
▁line	-9.58417
力量	-9.58421
▁c	-9.58435
威	-9.5871
父母	-9.58712
頭	-9.58797
既	-9.58801
▁read	-9.58834
issue	-9.5885
內	-9.58915
秦	-9.5902
▁That	-9.59028
再次	-9.59134
▁area	-9.59333
阶段	-9.59456
min	-9.5948
抗	-9.59613
▁list	-9.59669
▁week	-9.59682
故事	-9.59743
▁content	-9.59755
堂	-9.59778
加工	-9.59788
曲	-9.598
景	-9.59872
程序	-9.59917
q	-9.60076
左	-9.60111
丝	-9.60174
痛	-9.60301
as	-9.60419
互联网	-9.60429
▁possible	-9.60501
消费者	-9.60529
富	-9.60587
界	-9.60608
孙	-9.6062
乡	-9.60625
费用	-9.60637
给我	-9.6067
指出	-9.60726
▁why	-9.60779
▁==	-9.60833
皆	-9.60888
▁No	-9.60924
贵	-9.60935
容易	-9.61026
at	-9.61082
▁real	-9.61137
速	-9.61186
one	-9.61313
皮肤	-9.6137
打开	-9.61374
轮	-9.6143
st	-9.61432
整体	-9.61468
▁old	-9.6151
▁book	-9.61521
族	-9.61638
它的	-9.617
这次	-9.618
回答	-9.61833
英国	-9.61946
需	-9.61968
相信	-9.62054
呀	-9.62168
▁$\	-9.62188
time	-9.62285
吉	-9.62316
")	-9.62363
不同的	-9.62385
仍	-9.62409
步	-9.62411
▁easy	-9.62475
▁car	-9.62538
人民	-9.62549
▁post	-9.62572
区域	-9.62605
产	-9.62644
衣	-9.62709
推进	-9.62756
面对	-9.62793
For	-9.62809
梅	-9.62845
人类	-9.62854
sub	-9.62925
课	-9.62926
伊	-9.63007
施工	-9.63018
mm	-9.63033
帝	-9.63049
在一起	-9.63208
还要	-9.63241
肯定	-9.63256
引	-9.63262
测试	-9.63277
善	-9.63423
状	-9.63526
▁thing	-9.63527
更新	-9.63562
指导	-9.63581
▁says	-9.6365
剂	-9.63683
洗	-9.63687
改革	-9.63715
rs	-9.63781
▁care	-9.63792
username	-9.63796
ul	-9.63879
真正	-9.63951
满足	-9.63964
▁food	-9.63989
即可	-9.63998
谈	-9.6401
些	-9.6408
▁These	-9.64111
属	-9.6412
托	-9.64266
作者	-9.64297
酸	-9.64301
职业	-9.64303
▁import	-9.64313
丁	-9.64339
普	-9.64347
▁children	-9.64366
宣传	-9.64391
▁let	-9.64402
no	-9.6441
总是	-9.64431
性能	-9.64483
社区	-9.64496
下降	-9.64517
形式	-9.64566
▁large	-9.64699
来看	-9.64764
厂	-9.64845
较	-9.64866
稳定	-9.64908
的时间	-9.64978
亿	-9.64982
氣	-9.64991
范围	-9.65019
普通	-9.65085
哈	-9.65134
康	-9.65135
line	-9.65205
液	-9.65282
分别	-9.6538
哦	-9.65442
▁less	-9.65448
▁second	-9.65503
一年	-9.65508
目	-9.6552
宫	-9.65571
ine	-9.65575
泰	-9.65593
计算	-9.65616
▁side	-9.65786
笔	-9.65794
國	-9.65796
秋	-9.65845
▁point	-9.65933
▁true	-9.65956
▁O	-9.66053
▁model	-9.66068
园	-9.66083
雅	-9.66128
冰	-9.66157
～	-9.66181
兴	-9.66235
质	-9.66279
保险	-9.66312
?”	-9.66326
徐	-9.66376
含	-9.66586
一個	-9.66634
app	-9.6667
下来	-9.667
▁All	-9.66716
ch	-9.66789
永	-9.66876
食品	-9.66893
▁What	-9.66949
注	-9.66983
脑	-9.67077
追	-9.67133
▁body	-9.67186
▁W	-9.6722
旧	-9.67232
path	-9.67297
她的	-9.67321
的情况	-9.67327
音乐	-9.67349
感到	-9.67353
^	-9.67357
方便	-9.67379
连接	-9.67383
语言	-9.67391
▁#	-9.67507
之中	-9.676
▁together	-9.6771
▁run	-9.67742
臣	-9.67808
狗	-9.67824
脸	-9.67859
恢复	-9.67876
人物	-9.67901
發	-9.67905
异	-9.67998
▁didn	-9.68021
支付	-9.68047
野	-9.68064
疾病	-9.68092
机制	-9.68107
▁room	-9.68162
桥	-9.68174
▁often	-9.68234
▁already	-9.68266
▁following	-9.68282
文章	-9.68312
技能	-9.68324
▁Your	-9.68427
影	-9.68548
反应	-9.6855
群众	-9.68562
一条	-9.68636
硬	-9.68763
现	-9.68822
从而	-9.68824
观	-9.68824
运营	-9.6884
对方	-9.68988
age	-9.69086
▁However	-9.69092
媒体	-9.69095
▁enough	-9.69105
鬼	-9.69117
耳	-9.69145
事件	-9.69188
合同	-9.6931
府	-9.69347
▁head	-9.69369
點	-9.69402
正式	-9.69463
ar	-9.69479
课程	-9.69517
湖	-9.69542
体育	-9.69556
盛	-9.69661
▁try	-9.69735
数量	-9.6976
喜	-9.69833
纸	-9.69849
▁house	-9.69853
优化	-9.69986
▁results	-9.69993
改善	-9.70011
倍	-9.70073
农	-9.70075
森	-9.70078
规范	-9.70182
密	-9.70265
证明	-9.70329
▁done	-9.70345
▁offer	-9.70372
盖	-9.70409
▁times	-9.70424
秀	-9.70458
降	-9.70499
code	-9.70532
▁having	-9.70534
商业	-9.70544
港	-9.70567
随	-9.70589
▁call	-9.70597
记录	-9.70679
翻	-9.70685
est	-9.70707
開	-9.70744
符合	-9.70776
致	-9.70783
事情	-9.70791
的事	-9.70794
英语	-9.70909
▁hard	-9.70953
圈	-9.70985
库	-9.71029
de	-9.71054
带来	-9.71081
一位	-9.71207
细	-9.7123
确保	-9.7129
彩	-9.71431
▁check	-9.71441
▁m	-9.7146
打造	-9.71522
时期	-9.71532
尽管	-9.71554
就能	-9.71663
一家	-9.71686
▁today	-9.71698
Name	-9.71717
票	-9.7173
众	-9.71775
ty	-9.71811
办理	-9.71817
通常	-9.71865
車	-9.71894
▁below	-9.7192
玩家	-9.7197
支	-9.72048
▁add	-9.72051
让我	-9.7212
绝	-9.72164
块	-9.72205
视	-9.72232
同样	-9.72287
新闻	-9.72294
的方式	-9.723
程度	-9.72421
句	-9.72462
藏	-9.72508
▁study	-9.72526
有什么	-9.72629
温	-9.72683
街	-9.72736
儿童	-9.72738
是在	-9.72744
阅读	-9.72786
峰	-9.72802
交通	-9.72807
▁V	-9.7281
孔	-9.7283
ry	-9.72843
展	-9.72935
牙	-9.7297
▁school	-9.73014
▁live	-9.73023
當	-9.73027
就像	-9.73082
钢	-9.73174
_{	-9.73278
▁f	-9.7331
ent	-9.7334
如今	-9.73353
整	-9.73408
啦	-9.73435
借	-9.7349
川	-9.73492
有一个	-9.73514
▁form	-9.7357
自身	-9.73738
▁ever	-9.73783
▁person	-9.7379
亮	-9.73905
He	-9.73941
背	-9.7398
▁J	-9.74004
机会	-9.74009
▁become	-9.74108
▁products	-9.74114
的一个	-9.74159
讨论	-9.74229
规模	-9.74251
膜	-9.74302
顺	-9.74347
银	-9.74352
味	-9.74382
妈妈	-9.74465
▁file	-9.74703
▁came	-9.74754
不知	-9.74769
▁With	-9.74781
梁	-9.74795
几乎	-9.74813
大量	-9.74847
仅	-9.74955
不足	-9.75016
税	-9.75056
程	-9.75066
有限公司	-9.7512
▁account	-9.75158
▁course	-9.75384
▁health	-9.75498
培养	-9.75503
的发展	-9.75507
▁once	-9.7556
的方法	-9.7557
魔	-9.75577
ton	-9.7561
▁called	-9.75677
▁big	-9.75738
奖	-9.75758
['	-9.75861
明确	-9.7592
生物	-9.75956
瑞	-9.7596
不了	-9.75972
注册	-9.76035
离开	-9.76101
阴	-9.76181
蓝	-9.76217
联合	-9.76249
▁|	-9.76262
一天	-9.76262
ist	-9.76311
▁personal	-9.76362
手术	-9.76374
放在	-9.76468
断	-9.76528
绿	-9.76546
韩	-9.76595
不用	-9.766
還	-9.76616
战略	-9.76626
":	-9.76676
女性	-9.76703
▁x	-9.76709
箱	-9.76715
ies	-9.76751
友	-9.76763
▁night	-9.76919
▁example	-9.77016
jupyter	-9.77017
篇	-9.77034
▁along	-9.77077
伯	-9.77121
▁thought	-9.77171
顶	-9.77199
刷	-9.77216
比赛	-9.77224
环	-9.77246
移动	-9.77347
母	-9.77356
co	-9.77365
户	-9.77471
天下	-9.77475
There	-9.77531
仁	-9.77532
登	-9.77543
本身	-9.77548
曾经	-9.77563
领	-9.77569
糖	-9.77687
维护	-9.77703
▁means	-9.77805
▁far	-9.77949
塞	-9.77971
▁page	-9.78047
令人	-9.78064
……”	-9.78096
供	-9.78161
？」	-9.78184
采取	-9.78203
司	-9.78283
引起	-9.78296
应当	-9.78319
而言	-9.78336
▁getting	-9.78447
电话	-9.78498
配置	-9.78501
▁several	-9.78533
试	-9.78588
▁services	-9.78762
举	-9.78767
汤	-9.78798
心里	-9.78859
升级	-9.78961
▁based	-9.79
son	-9.79048
▁X	-9.79101
让人	-9.79114
不到	-9.7919
内部	-9.79197
相对	-9.79212
困难	-9.79214
机械	-9.79237
When	-9.79401
细胞	-9.79439
感染	-9.79522
营销	-9.79546
ary	-9.79659
鸡	-9.79722
ne	-9.79807
统一	-9.79832
双方	-9.79835
洛	-9.79965
运用	-9.7999
么	-9.79991
ling	-9.80029
生命	-9.80135
▁range	-9.80146
ian	-9.80159
門	-9.80161
▁face	-9.80306
念	-9.80335
less	-9.80351
的小	-9.80476
▁b	-9.8051
▁power	-9.80534
好像	-9.80541
观察	-9.80546
跳	-9.8058
list	-9.80588
设	-9.80602
▁Do	-9.80756
位于	-9.80903
▁code	-9.80933
As	-9.80966
有了	-9.81004
圆	-9.81007
仙	-9.81062
▁level	-9.81102
农业	-9.8117
個	-9.81215
▁makes	-9.81254
标	-9.81298
烟	-9.81373
仍然	-9.81433
test	-9.81433
▁result	-9.8149
▁though	-9.81509
具	-9.81519
的工作	-9.81528
丹	-9.81566
me	-9.81641
▁space	-9.81839
虎	-9.81869
▁/	-9.81904
回来	-9.81932
下面	-9.81955
沒有	-9.8196
自我	-9.8197
▁product	-9.82028
尤其是	-9.82043
上面	-9.82058
脱	-9.82091
小时	-9.82105
造	-9.8214
佛	-9.82168
▁market	-9.8217
集中	-9.82207
零	-9.82257
农村	-9.82297
盐	-9.82309
医疗	-9.82312
消息	-9.82312
▁social	-9.82338
▁access	-9.8234
鲁	-9.82384
终于	-9.82395
我就	-9.82522
诺	-9.8255
世纪	-9.82647
掌握	-9.82868
核	-9.82882
um	-9.82887
青年	-9.82904
▁across	-9.82921
女人	-9.82935
说道	-9.82972
▁pre	-9.83011
html	-9.8302
并没有	-9.83063
独立	-9.83144
独	-9.8317
▁doing	-9.83191
▁comes	-9.83236
”、“	-9.83303
进行了	-9.83304
罪	-9.8334
我觉得	-9.83357
▁needs	-9.83392
主动	-9.83479
那样	-9.83519
log	-9.83527
功	-9.8368
意识	-9.83736
▁doesn	-9.83744
德国	-9.83784
搞	-9.83785
怪	-9.83809
配合	-9.83828
架	-9.83842
久	-9.83847
出了	-9.8388
▁four	-9.83977
▁mind	-9.83997
解释	-9.83999
谷	-9.84005
几个	-9.84062
错	-9.84123
的影响	-9.84142
▁quality	-9.84173
是个	-9.84175
即使	-9.8419
暗	-9.84205
施	-9.84216
谢	-9.84223
岛	-9.84275
训练	-9.84339
▁others	-9.84344
▁past	-9.84348
▁problem	-9.84412
▁My	-9.84483
print	-9.84526
一旦	-9.84529
第一次	-9.84704
做出	-9.84726
io	-9.84727
创业	-9.84773
▁won	-9.8478
心理	-9.84785
在线	-9.84804
教授	-9.84919
▁control	-9.84928
怎么样	-9.84945
在这里	-9.84952
▁non	-9.85076
凡	-9.85146
▁light	-9.85275
本人	-9.85338
到底	-9.85388
三个	-9.85401
资本	-9.85454
▁size	-9.85464
依	-9.85467
os	-9.8549
就要	-9.85509
ting	-9.8557
文明	-9.85578
▁event	-9.85629
委员会	-9.85639
▁news	-9.85651
唱	-9.85686
出口	-9.85687
资产	-9.85816
平时	-9.8589
成绩	-9.85921
最大的	-9.85944
限制	-9.8596
毒	-9.85981
▁story	-9.86045
营	-9.86072
疫情	-9.86138
迅速	-9.86182
闻	-9.86191
And	-9.8623
逐渐	-9.86377
温度	-9.86377
弄	-9.86437
抓	-9.86452
紫	-9.86463
软	-9.86467
里的	-9.86511
丽	-9.86556
▁else	-9.86611
了一个	-9.86625
之间的	-9.86639
革命	-9.8667
类型	-9.86756
连续	-9.86764
▁country	-9.86801
▁single	-9.8681
go	-9.86882
良	-9.86889
投入	-9.86899
右	-9.86905
创	-9.86951
数字	-9.86959
看着	-9.86963
智	-9.86996
男人	-9.86999
公开	-9.87014
专	-9.87043
帮	-9.87069
索	-9.87114
至少	-9.87169
酒店	-9.87198
▁yet	-9.87226
说话	-9.8726
▁price	-9.87295
现象	-9.87324
更是	-9.87356
瓦	-9.87358
以为	-9.87385
以来	-9.87412
▁pay	-9.87418
▁took	-9.87442
确实	-9.87461
核心	-9.87514
▁given	-9.87559
推广	-9.87566
ate	-9.87577
▁least	-9.87686
枪	-9.87727
勒	-9.87759
人生	-9.87806
印	-9.87833
往往	-9.87944
ie	-9.87945
▁short	-9.87958
的作用	-9.87974
增	-9.88007
尾	-9.88029
▁return	-9.88072
ant	-9.8814
兩	-9.88143
▁low	-9.88152
title	-9.88174
佳	-9.88175
带着	-9.88206
Type	-9.88207
重大	-9.88217
un	-9.88233
劳动	-9.8825
偏	-9.88266
怕	-9.88289
食物	-9.8832
怎样	-9.88331
comment	-9.88331
评价	-9.88399
span	-9.88401
就业	-9.88437
股票	-9.88443
不少	-9.88459
晚	-9.88467
楚	-9.88486
▁`	-9.88496
厚	-9.88529
有着	-9.88551
迪	-9.88603
▁kind	-9.88627
及其	-9.88733
蒙	-9.88799
▁everything	-9.88894
给你	-9.88976
也没有	-9.89004
乃	-9.89045
▁understand	-9.89056
成立	-9.89062
）、	-9.89158
贷款	-9.89355
宝宝	-9.89432
炎	-9.89508
停	-9.8953
末	-9.89543
适合	-9.89587
民族	-9.89733
▁design	-9.89759
並	-9.89802
挺	-9.89812
▁learn	-9.89845
成了	-9.89855
▁started	-9.89872
ia	-9.89873
by	-9.89877
职	-9.89887
尚	-9.89899
▁key	-9.89925
生态	-9.90101
认识	-9.9023
折	-9.90234
▁fact	-9.90245
做到	-9.90286
获	-9.90303
创造	-9.90306
性的	-9.9032
控	-9.90369
▁video	-9.90438
毕竟	-9.90458
舞	-9.90639
▁season	-9.90646
对象	-9.90646
哪	-9.90678
点击	-9.90715
年的	-9.90726
▁share	-9.9076
免费	-9.90827
许	-9.90832
他说	-9.90845
▁dis	-9.9089
String	-9.90954
眼睛	-9.90956
实验	-9.90961
载	-9.91046
':	-9.91062
▁user	-9.91111
▁above	-9.91181
▁went	-9.91193
的原因	-9.91208
欧洲	-9.91209
享受	-9.91253
讓	-9.91303
我也	-9.91314
晚上	-9.91316
▁St	-9.91325
来了	-9.91329
此次	-9.91336
哥	-9.91412
▁minutes	-9.91471
▁features	-9.91485
症状	-9.91512
美元	-9.91584
il	-9.91602
主要是	-9.91621
微信	-9.91684
编	-9.91711
烧	-9.91848
年度	-9.91875
发挥	-9.91907
物流	-9.91943
▁include	-9.9205
am	-9.9208
制定	-9.92118
label	-9.92142
▁public	-9.92201
》、《	-9.92266
特别是	-9.92276
ance	-9.9228
社	-9.92294
睡	-9.92331
最高	-9.92333
剧	-9.92369
na	-9.92451
明白	-9.92482
▁known	-9.92507
區	-9.92622
临	-9.92622
▁city	-9.92628
位置	-9.9266
表达	-9.92673
并不是	-9.92704
也许	-9.9274
use	-9.92874
▁current	-9.92881
▁t	-9.92898
减	-9.92906
静	-9.92926
▁plan	-9.92981
当前	-9.93032
▁One	-9.93045
身上	-9.93049
页	-9.93062
启动	-9.93083
贸易	-9.93142
她们	-9.93159
▁At	-9.93163
文学	-9.93172
思考	-9.93177
容	-9.93196
土地	-9.93207
杯	-9.93276
贝	-9.93283
▁method	-9.93324
No	-9.93341
网上	-9.93383
京	-9.93426
立即	-9.93437
add	-9.93443
大概	-9.93558
be	-9.93611
output	-9.93658
值得	-9.93665
卫	-9.93733
环保	-9.93773
▁friends	-9.9379
▁main	-9.9381
一边	-9.93832
处于	-9.93865
展示	-9.93887
表面	-9.93923
ro	-9.93984
size	-9.94002
小说	-9.94086
▁job	-9.94093
new	-9.94126
效率	-9.94175
季	-9.94196
增强	-9.94266
特色	-9.94271
曼	-9.94297
是指	-9.94402
▁special	-9.94482
相比	-9.94532
练	-9.94553
战争	-9.94561
所有的	-9.94574
成长	-9.94671
充分	-9.94676
杜	-9.94732
基于	-9.94732
强调	-9.94754
纯	-9.94763
露	-9.94808
有所	-9.94841
線	-9.94888
='	-9.94894
诸	-9.94929
如下	-9.9493
▁hours	-9.94935
图片	-9.95011
术	-9.9502
指标	-9.9503
學	-9.9504
同学	-9.95061
風	-9.95125
象	-9.95189
So	-9.95252
虚	-9.95278
],	-9.95304
合理	-9.95321
实践	-9.95355
▁later	-9.95381
ter	-9.95405
▁games	-9.9543
祖	-9.95435
完善	-9.955
公里	-9.95514
te	-9.95584
▁seen	-9.95611
▁told	-9.95692
▁music	-9.95697
},	-9.95746
▁community	-9.95747
卫生	-9.95819
上述	-9.95989
et	-9.9606
▁On	-9.9606
公共	-9.96158
But	-9.96174
药物	-9.96286
file	-9.9629
▁app	-9.96307
大型	-9.96307
▁simple	-9.96311
▁due	-9.96313
回到	-9.96327
的重要	-9.96347
▁whole	-9.96399
敢	-9.96613
干部	-9.96618
弱	-9.96629
也就是	-9.96629
依然	-9.96632
ir	-9.96635
陆	-9.96716
官方	-9.96753
深入	-9.96754
聚	-9.96755
紧	-9.96772
▁cells	-9.96809
沟通	-9.96863
床	-9.96869
const	-9.96873
越来越	-9.96875
▁fun	-9.96946
模型	-9.97118
▁bit	-9.97198
的大	-9.97279
不再	-9.97307
意见	-9.97417
遇到	-9.97608
動	-9.97614
流程	-9.97628
▁receive	-9.97632
去了	-9.97649
挂	-9.97716
居民	-9.97722
▁whether	-9.97796
▁future	-9.97863
▁actually	-9.97967
推出	-9.97969
電	-9.97976
监督	-9.98015
救	-9.9809
▁men	-9.98121
计算机	-9.9828
接触	-9.98323
馆	-9.98383
委	-9.98473
▁project	-9.98486
月份	-9.98506
薄	-9.9853
他們	-9.98601
▁n	-9.98604
▁perfect	-9.98638
下去	-9.98639
value	-9.98687
面积	-9.98827
斗	-9.98839
更多的	-9.98899
table	-9.9897
出去	-9.99
的情况下	-9.9905
▁heart	-9.991
追求	-9.99127
"""	-9.99219
中间	-9.99223
谢谢	-9.99238
正是	-9.99247
工艺	-9.99277
▁anything	-9.99321
置	-9.99368
▁women	-9.99398
从事	-9.99419
吸	-9.99425
▁question	-9.99537
那里	-9.99542
▁Our	-9.9957
大部分	-9.99689
投资者	-9.99694
▁air	-9.99708
行政	-9.99718
协议	-9.99722
right	-9.9975
玻璃	-9.99759
都在	-9.998
涉及	-9.99855
每次	-9.99919
▁v	-9.99937
结束	-9.99951
td	-10.0001
特点	-10.0002
▁media	-10.0006
击	-10.0007
▁After	-10.0009
乘	-10.0011
do	-10.0022
意义	-10.004
▁tell	-10.0042
听到	-10.0048
智慧	-10.0054
详细	-10.0059
有没有	-10.0068
▁De	-10.007
做了	-10.0074
▁months	-10.0077
面前	-10.0079
法国	-10.0082
ating	-10.0089
去年	-10.0105
戏	-10.0105
 	-10.0106
洞	-10.0106
很难	-10.0109
▁please	-10.0112
直到	-10.0114
▁final	-10.012
射	-10.0124
两人	-10.013
宜	-10.0132
渠道	-10.0134
相当	-10.0145
幸福	-10.0146
事业	-10.0151
宣布	-10.0154
难以	-10.0155
办法	-10.0156
進	-10.0157
嘉	-10.016
ID	-10.0163
此时	-10.0166
苹果	-10.0169
变得	-10.0169
包装	-10.0173
咱们	-10.0174
].	-10.0177
慢	-10.018
希	-10.0185
▁close	-10.0189
人口	-10.019
▁asked	-10.0194
家长	-10.0196
平均	-10.0197
车辆	-10.0202
▁How	-10.0206
混	-10.0212
特殊	-10.0221
过来	-10.0222
使得	-10.023
key	-10.0231
主义	-10.0232
不敢	-10.024
拜	-10.0252
之外	-10.0252
还可以	-10.0259
警	-10.0261
运输	-10.0263
须	-10.0267
原则	-10.0269
晓	-10.0275
突破	-10.0284
哪些	-10.0285
装修	-10.0285
▁early	-10.0296
請	-10.0298
年代	-10.0299
有哪些	-10.0305
應	-10.0307
判断	-10.0308
抽	-10.0311
就在	-10.0311
防止	-10.0314
很好	-10.0316
▁address	-10.032
相互	-10.0324
担心	-10.0325
请问	-10.0326
不想	-10.0326
也就	-10.0337
侧	-10.0342
你可以	-10.0343
恶	-10.0349
猫	-10.035
皇帝	-10.035
js	-10.0354
动物	-10.0356
那种	-10.0361
每年	-10.0362
总结	-10.0368
▁program	-10.0372
宽	-10.0373
ce	-10.0374
屋	-10.0378
承	-10.0383
▁co	-10.0391
基地	-10.0393
▁d	-10.0397
人家	-10.0401
输入	-10.0407
郭	-10.0411
计	-10.0415
母亲	-10.0415
▁cost	-10.0417
一份	-10.0419
▁g	-10.0427
高度	-10.043
Re	-10.0433
▁present	-10.0433
手段	-10.0434
ra	-10.0436
好了	-10.0438
px	-10.044
不管	-10.0441
装备	-10.0442
植物	-10.0453
Id	-10.0454
助	-10.0459
▁someone	-10.0468
**	-10.0471
流量	-10.0476
sup	-10.0479
落实	-10.0483
研发	-10.0487
▁idea	-10.0487
实行	-10.0491
开放	-10.0493
灰	-10.0495
▁offers	-10.0496
忠	-10.0498
个月	-10.0499
主题	-10.0502
▁God	-10.0503
进口	-10.0503
▁view	-10.0516
优秀	-10.0519
有个	-10.052
持	-10.0523
ta	-10.0524
无论	-10.0524
固定	-10.0525
郑	-10.0526
柳	-10.0532
回家	-10.0533
补充	-10.0537
让他	-10.0537
哪个	-10.0543
一片	-10.0546
真是	-10.0551
原来	-10.0553
all	-10.0553
竹	-10.0554
儿子	-10.0558
提前	-10.0559
有很多	-10.056
體	-10.0563
▁five	-10.0565
▁million	-10.0571
戴	-10.0576
承担	-10.0577
杰	-10.0581
井	-10.0585
可能会	-10.0588
▁我	-10.0592
通知	-10.0596
form	-10.0598
获取	-10.06
string	-10.0602
http	-10.0602
给予	-10.0602
而不是	-10.0604
場	-10.0604
的生活	-10.061
您的	-10.0615
▁either	-10.0622
▁China	-10.0627
攻	-10.0636
見	-10.0636
▁style	-10.0638
当地	-10.0646
止	-10.0646
羊	-10.0649
策略	-10.0649
出来的	-10.0649
▁believe	-10.0651
兄弟	-10.0653
嘴	-10.0654
Data	-10.0658
▁students	-10.0658
▁child	-10.0665
耐	-10.0666
监管	-10.0668
凉	-10.0669
创建	-10.0674
挑战	-10.0677
死亡	-10.0678
娱乐	-10.0678
▁eyes	-10.068
墙	-10.0681
▁con	-10.0682
最大	-10.0682
来到	-10.0688
ful	-10.0689
怎么办	-10.0689
还能	-10.0694
Get	-10.0695
▁white	-10.07
宇	-10.0702
服務	-10.0706
竞争	-10.0709
征	-10.0717
都可以	-10.0723
私	-10.0729
贴	-10.074
皇	-10.074
▁trying	-10.074
金属	-10.0742
规则	-10.0745
传播	-10.0749
▁mean	-10.075
腿	-10.0752
声音	-10.0752
▁human	-10.0754
▁Co	-10.0757
熟	-10.0759
似	-10.0759
潮	-10.0763
▁yourself	-10.0763
https	-10.0765
台湾	-10.0768
user	-10.0786
距离	-10.0788
處	-10.0792
如果是	-10.0792
探	-10.08
ted	-10.0806
吹	-10.0807
情绪	-10.0812
ping	-10.082
上了	-10.0825
ization	-10.0828
附	-10.083
特征	-10.0832
父亲	-10.0833
举行	-10.0835
修改	-10.0844
▁move	-10.0851
高级	-10.0852
▁choose	-10.0855
▁taking	-10.0858
www	-10.0859
铜	-10.0861
池	-10.0864
胶	-10.0867
沈	-10.0867
萨	-10.0868
站在	-10.087
一名	-10.0873
($	-10.0874
症	-10.0874
强化	-10.0875
护	-10.0875
魏	-10.0875
治理	-10.088
");	-10.088
洪	-10.0887
他在	-10.089
虽	-10.0896
per	-10.0897
▁almost	-10.0898
丰富	-10.0901
我在	-10.0902
代码	-10.0905
鞋	-10.0907
?"	-10.0907
让你	-10.0912
進行	-10.0912
习惯	-10.0913
ad	-10.0917
上市	-10.0917
一场	-10.0918
或是	-10.0922
▁research	-10.0922
▁young	-10.0928
动力	-10.0929
心中	-10.0931
至于	-10.0934
▁clear	-10.0943
严	-10.0943
为主	-10.0944
略	-10.0948
弹	-10.095
ous	-10.0956
三年	-10.0967
要是	-10.0969
工资	-10.097
冬	-10.0974
艾	-10.0981
饭	-10.0986
扩大	-10.0988
忙	-10.0998
各类	-10.0998
所谓	-10.0999
仪	-10.0999
都要	-10.1001
▁further	-10.1002
定位	-10.1007
势	-10.101
▁effect	-10.101
理念	-10.1017
装置	-10.1024
伦	-10.1024
应该是	-10.1028
利益	-10.1029
份	-10.1035
目的	-10.1041
协会	-10.1043
很大	-10.1043
矣	-10.1048
▁contact	-10.1052
。　	-10.1057
▁_	-10.1059
依据	-10.1066
作业	-10.1074
▁comment	-10.1075
姆	-10.1076
医	-10.108
神经	-10.1084
燕	-10.1088
很快	-10.1088
start	-10.109
有的	-10.1091
扣	-10.1091
走了	-10.1092
样	-10.1095
优	-10.1096
缺乏	-10.1098
of	-10.1098
这位	-10.1101
百度	-10.1102
复杂	-10.1103
厅	-10.1104
im	-10.1106
ized	-10.1109
▁rate	-10.1122
变成	-10.1123
看见	-10.1124
看来	-10.1125
給	-10.1125
机关	-10.1131
攻击	-10.1133
鸟	-10.1134
▁front	-10.1138
怀	-10.1141
屏	-10.1141
认真	-10.1145
str	-10.1145
评估	-10.1147
！」	-10.1149
▁options	-10.1151
▁among	-10.1154
▁nothing	-10.1154
__	-10.1158
多个	-10.116
付	-10.1163
ma	-10.1164
物质	-10.1174
免	-10.1175
let	-10.1178
荣	-10.1179
绿色	-10.1182
▁field	-10.1186
钟	-10.1189
也要	-10.1202
壁	-10.1208
否则	-10.1211
深圳	-10.1223
▁month	-10.1225
▁likely	-10.1226
▁however	-10.1227
▁inside	-10.1228
▁added	-10.1236
文字	-10.1238
秒	-10.1238
的主要	-10.124
甚	-10.1241
测	-10.1245
不错	-10.1246
引导	-10.1247
▁store	-10.1249
兼	-10.1251
永远	-10.1252
▁half	-10.1254
感情	-10.1257
▁via	-10.1265
浮	-10.1272
邦	-10.1282
磨	-10.1286
顾	-10.1288
。（	-10.1292
▁American	-10.1293
▁addition	-10.1308
息	-10.1317
负	-10.1323
洋	-10.1328
刺激	-10.1329
概念	-10.1333
▁details	-10.1336
不需要	-10.1336
航	-10.1337
萬	-10.1337
父	-10.1339
•	-10.134
备	-10.134
窗	-10.1341
List	-10.1342
▁questions	-10.1342
▁build	-10.1344
▁amount	-10.1345
现实	-10.1348
▁higher	-10.1364
有时	-10.1365
搜索	-10.1367
黄金	-10.1379
▁age	-10.1379
滑	-10.1381
▁changes	-10.1381
▁turn	-10.1382
的新	-10.139
▁stay	-10.1391
答	-10.1394
绝对	-10.1398
包含	-10.1399
都没有	-10.1402
经历	-10.1403
关键	-10.1408
登记	-10.1409
指数	-10.1421
▁bring	-10.1422
这就是	-10.1423
支撑	-10.1425
告	-10.1426
ur	-10.1434
参考	-10.1435
▁quite	-10.1436
刚刚	-10.1437
营养	-10.1443
凯	-10.1448
▁energy	-10.145
▁r	-10.145
会有	-10.145
实力	-10.145
其它	-10.1452
▁visit	-10.1453
咨询	-10.1458
▁search	-10.1459
实际上	-10.1459
因為	-10.1459
▁behind	-10.146
▁table	-10.1467
▁patients	-10.1469
英文	-10.1469
禁	-10.1469
']	-10.1475
ol	-10.1476
雄	-10.1482
▁hair	-10.1483
坏	-10.1488
横	-10.1492
蛋	-10.1494
加上	-10.1502
人士	-10.1508
比例	-10.1514
错误	-10.1516
都能	-10.1524
信号	-10.1534
探索	-10.1538
异常	-10.1546
View	-10.1547
广州	-10.1549
来源	-10.1555
而已	-10.1556
或许	-10.1558
▁property	-10.1561
my	-10.1567
随后	-10.1569
珠	-10.1571
虫	-10.1571
码	-10.1574
▁Pro	-10.1575
采	-10.1578
▁upon	-10.1587
▁reason	-10.1588
参	-10.1599
预防	-10.1601
▁version	-10.1612
愿意	-10.1621
▁similar	-10.1631
▁void	-10.1635
很多人	-10.1639
ism	-10.1641
角色	-10.1641
net	-10.1652
英雄	-10.1653
财	-10.1657
▁text	-10.1659
▁enjoy	-10.166
▁phone	-10.1661
评	-10.1662
▁rest	-10.1664
报道	-10.1667
With	-10.1667
加快	-10.1669
年龄	-10.1675
▁Be	-10.1675
一张	-10.168
印度	-10.1687
My	-10.1688
化学	-10.1689
寻找	-10.17
py	-10.1702
病毒	-10.1715
庄	-10.1716
慢慢	-10.1717
▁everyone	-10.1717
▁save	-10.1721
电视	-10.1723
呈	-10.1727
▁simply	-10.1734
ish	-10.1738
▁ago	-10.1738
▁sub	-10.1738
当中	-10.1744
评论	-10.1744
同意	-10.1745
的内容	-10.1745
▁image	-10.1746
All	-10.1746
镜	-10.1747
结婚	-10.1751
▁matter	-10.1753
统计	-10.1754
刻	-10.1763
成果	-10.1765
▁click	-10.1767
猪	-10.1768
這個	-10.1772
公司的	-10.1773
额	-10.1773
欧	-10.1773
办公室	-10.1779
▁soon	-10.1782
状况	-10.1787
▁An	-10.1791
是由	-10.1794
抢	-10.1794
一只	-10.1794
▁specific	-10.1795
本次	-10.1797
*/	-10.18
形象	-10.1803
适应	-10.1804
▁buy	-10.1805
▁near	-10.1809
期待	-10.1813
失败	-10.1813
▁wanted	-10.1817
莱	-10.1817
劳	-10.182
来的	-10.1821
消	-10.1823
风格	-10.1824
输出	-10.1824
还在	-10.1825
根本	-10.1828
这时	-10.1829
伤害	-10.1831
务	-10.1838
给他	-10.184
的一种	-10.1843
成员	-10.1844
▁third	-10.1847
锁	-10.1848
▁skin	-10.1849
沉	-10.185
组成	-10.1852
▁works	-10.1853
快乐	-10.1858
查看	-10.1858
具备	-10.186
瓶	-10.1862
▁cell	-10.1868
墨	-10.1876
”“	-10.1879
还没有	-10.1882
▁black	-10.1887
tr	-10.1889
》（	-10.1891
▁series	-10.1891
能源	-10.1891
▁increase	-10.1892
em	-10.1898
大小	-10.19
的要求	-10.19
▁writing	-10.1904
始终	-10.1905
Do	-10.1906
書	-10.1908
▁certain	-10.1908
提供了	-10.1909
▁beautiful	-10.1909
企業	-10.1917
伟	-10.1919
布局	-10.192
腰	-10.1928
可能是	-10.1929
垃圾	-10.1934
吸引	-10.1935
振	-10.1946
颜色	-10.1947
▁common	-10.1948
设施	-10.1952
家里	-10.1952
预计	-10.1954
▁words	-10.1955
提示	-10.1957
版本	-10.1961
▁cannot	-10.1962
▁needed	-10.1963
尊	-10.1967
麻	-10.1968
改造	-10.1968
的感觉	-10.197
添加	-10.1971
不如	-10.1971
逃	-10.1973
是因为	-10.1973
▁taken	-10.1976
确认	-10.198
▁article	-10.1982
▁complete	-10.1984
▁development	-10.1986
中國	-10.1986
资	-10.1987
内存	-10.1988
老人	-10.1992
惠	-10.1992
直播	-10.1993
清楚	-10.1994
▁href	-10.2
馬	-10.2
插	-10.2001
▁follow	-10.2002
都不	-10.2002
感受	-10.2003
▁id	-10.2004
▁lower	-10.2005
泽	-10.2005
演	-10.2013
聲	-10.2013
不可能	-10.2014
描述	-10.2015
▁date	-10.2026
紧张	-10.2027
▁step	-10.2028
喷	-10.2029
步骤	-10.2031
庆	-10.2034
巨	-10.2034
老板	-10.2036
la	-10.204
良好的	-10.2044
▁items	-10.2047
我要	-10.2048
▁especially	-10.2049
坐在	-10.205
房子	-10.2061
▁ways	-10.2065
动作	-10.2066
▁issue	-10.2066
▁His	-10.2069
▁error	-10.2073
准	-10.2073
sh	-10.2076
IP	-10.2081
ac	-10.2087
粗	-10.2089
》《	-10.209
})	-10.2094
▁running	-10.2095
▁color	-10.2096
休息	-10.2097
{\	-10.2097
针	-10.2097
▁unique	-10.2099
才是	-10.2115
department	-10.2115
▁total	-10.2118
平衡	-10.2124
你好	-10.2129
舍	-10.2129
▁various	-10.2132
分为	-10.2134
產品	-10.2134
欢迎	-10.2134
答案	-10.2139
分类	-10.2141
▁history	-10.2143
泡	-10.2144
犯	-10.2147
党员	-10.2149
val	-10.215
▁leave	-10.2151
部队	-10.2151
數	-10.2158
》。	-10.2159
宣	-10.2163
农民	-10.2164
发表	-10.2167
lo	-10.2168
提醒	-10.2169
道德	-10.2176
鼓励	-10.2179
突出	-10.2182
山东	-10.2182
娜	-10.2183
扬	-10.2184
医学	-10.2185
▁allow	-10.219
阵	-10.2191
隆	-10.22
乌	-10.2202
model	-10.2202
道路	-10.2204
卻	-10.2205
▁La	-10.2206
终	-10.2212
mp	-10.2216
▁coming	-10.2216
显	-10.2217
餐	-10.2218
的产品	-10.2219
地位	-10.2221
▁string	-10.2224
▁rather	-10.2229
▁analysis	-10.223
上升	-10.2234
排名	-10.2235
技巧	-10.2237
旗	-10.2246
▁h	-10.2248
▁members	-10.225
></	-10.2256
▁living	-10.2256
告诉	-10.2266
召开	-10.2267
▁events	-10.2273
案件	-10.2274
休	-10.2274
各位	-10.2276
不够	-10.2281
▁probably	-10.2286
害	-10.2287
顿	-10.2287
遇	-10.2288
协调	-10.2289
▁action	-10.2298
▁York	-10.2299
污染	-10.23
input	-10.2304
最新	-10.2305
}\	-10.2308
▁credit	-10.2309
分配	-10.231
代理	-10.2318
url	-10.2321
那是	-10.2326
▁latest	-10.233
放弃	-10.2341
ated	-10.2342
关心	-10.2344
太多	-10.2347
韩国	-10.2352
的关系	-10.2354
▁hope	-10.2355
接近	-10.2361
▁moment	-10.2364
▁ready	-10.2365
饮食	-10.2374
param	-10.2376
丰	-10.2377
ities	-10.2378
搭配	-10.238
今日	-10.238
夫人	-10.2382
old	-10.2385
数学	-10.2398
官网	-10.2398
▁int	-10.2399
敬	-10.2399
▁%	-10.2405
▁}	-10.2408
的声音	-10.241
链	-10.241
▁customers	-10.2414
之下	-10.2416
跨	-10.2416
后面	-10.2423
private	-10.2435
▁shows	-10.2435
累	-10.2435
女生	-10.2437
ence	-10.2437
衣服	-10.2439
])	-10.2449
麦	-10.2454
的朋友	-10.2457
▁card	-10.246
大多数	-10.2469
的同时	-10.2469
掌	-10.247
ally	-10.2473
爱情	-10.2475
财政	-10.2476
▁weight	-10.2479
重视	-10.2484
▁popular	-10.2485
▁government	-10.2489
冠	-10.2493
▁paper	-10.2496
▁required	-10.2498
▁option	-10.2504
陵	-10.2504
损失	-10.2506
ley	-10.2509
缺	-10.2513
▁Not	-10.2515
實	-10.2515
出现了	-10.2516
继	-10.2516
script	-10.2518
维持	-10.252
也能	-10.2521
构建	-10.2526
近日	-10.2527
曹	-10.2529
多了	-10.2535
敌	-10.2536
On	-10.2537
锅	-10.2538
袋	-10.2538
▁door	-10.2539
刺	-10.254
晋	-10.2544
侯	-10.2545
品质	-10.2545
QQ	-10.2548
▁building	-10.255
溪	-10.2551
鼓	-10.2558
收益	-10.2561
▁position	-10.2568
健	-10.2568
轻松	-10.2569
▁Al	-10.2572
固	-10.2573
彻底	-10.2576
萧	-10.2577
×	-10.2584
夹	-10.2587
哭	-10.2596
严格	-10.2597
广泛	-10.2601
参数	-10.2607
录	-10.261
ip	-10.2611
过了	-10.2613
停止	-10.2615
ize	-10.2621
发行	-10.2623
吸收	-10.2628
寄	-10.2629
▁stop	-10.2631
真正的	-10.2633
展开	-10.2638
估计	-10.2643
证券	-10.2645
事实	-10.2645
工厂	-10.2646
竟	-10.2649
熱	-10.2651
机器	-10.2652
▁major	-10.2654
狂	-10.266
▁By	-10.2662
▁Now	-10.2666
該	-10.2668
▁forward	-10.2669
利润	-10.2672
▁k	-10.2675
俄罗斯	-10.2679
▁longer	-10.268
首次	-10.268
那就	-10.2681
▁happy	-10.2686
▁role	-10.2687
元素	-10.2688
▁risk	-10.2691
▁Here	-10.2691
菲	-10.2698
▁response	-10.2703
广大	-10.2709
▁outside	-10.2711
org	-10.2718
竟然	-10.2718
顾客	-10.2722
批	-10.2727
▁isn	-10.2728
学科	-10.2729
拒绝	-10.2731
▁ask	-10.2731
届	-10.2732
▁natural	-10.2733
查询	-10.2735
▁deal	-10.2735
湿	-10.274
▁web	-10.2741
险	-10.2748
東	-10.2751
收到	-10.2753
西方	-10.2755
表明	-10.2758
張	-10.2758
预	-10.2759
▁looked	-10.2759
太阳	-10.2762
ning	-10.2771
房屋	-10.2771
杂	-10.2772
贡献	-10.2775
缘	-10.2777
资格	-10.2778
融资	-10.2785
▁according	-10.2787
帶	-10.2788
始	-10.279
ref	-10.2794
透	-10.2799
环节	-10.2803
▁United	-10.2804
ri	-10.2805
担任	-10.2807
dy	-10.281
▁null	-10.2812
▁pro	-10.2813
限	-10.2816
延	-10.2816
By	-10.2818
等级	-10.282
▁created	-10.282
想到	-10.2823
高校	-10.2824
▁points	-10.2825
第四	-10.2829
调节	-10.2832
▁Then	-10.2834
land	-10.2837
预测	-10.2838
会计	-10.284
昌	-10.284
▁source	-10.2843
▁saw	-10.2845
循环	-10.2851
加盟	-10.2852
▁Z	-10.2864
思维	-10.2865
趋势	-10.2866
勇	-10.2871
到达	-10.2873
背景	-10.2875
岩	-10.2877
铺	-10.2878
玄	-10.2881
测量	-10.2888
▁general	-10.2888
設計	-10.2891
!”	-10.2892
部署	-10.2894
豪	-10.2898
總	-10.2899
懂	-10.29
正确	-10.2914
▁Some	-10.292
');	-10.2927
这个问题	-10.2928
function	-10.293
嘛	-10.2932
娘	-10.2936
▁review	-10.2938
麻烦	-10.2942
女儿	-10.2943
工人	-10.2943
逐步	-10.2944
▁strong	-10.2948
试验	-10.2958
▁send	-10.2958
凤	-10.2959
▁Can	-10.296
便是	-10.2961
抱	-10.2964
▁improve	-10.2966
▁companies	-10.2969
間	-10.2974
狼	-10.2975
一致	-10.2977
▁US	-10.2979
多次	-10.2979
组合	-10.2979
财务	-10.298
照片	-10.299
移	-10.299
真实	-10.2991
融合	-10.3003
更好的	-10.3007
▁link	-10.3012
反映	-10.3012
▁usually	-10.3013
装饰	-10.3013
▁sense	-10.3027
你要	-10.3027
轉	-10.3027
的能力	-10.3031
还会	-10.3048
南京	-10.305
奏	-10.3056
围	-10.3057
強	-10.3059
則	-10.3065
他是	-10.3066
租	-10.3068
附近	-10.307
年轻	-10.3074
一段	-10.3075
▁issues	-10.3076
▁browser	-10.3079
铁路	-10.3085
线上	-10.3086
第一个	-10.3086
▁takes	-10.3094
尖	-10.3096
多种	-10.3097
。。。	-10.31
盒	-10.3108
共享	-10.3116
稿	-10.3121
豆	-10.3122
愿	-10.3126
逆	-10.3129
轴	-10.3131
ner	-10.3131
导	-10.3131
专门	-10.3132
广东	-10.314
凌	-10.3154
▁travel	-10.3156
一是	-10.316
尝试	-10.316
各个	-10.3161
灭	-10.3163
马上	-10.3163
整理	-10.3163
效	-10.3169
▁cut	-10.317
Is	-10.3172
琴	-10.3172
的故事	-10.3173
ang	-10.3176
将会	-10.3176
法院	-10.3177
▁oil	-10.3178
拔	-10.3178
函数	-10.318
报名	-10.318
ber	-10.318
让我们	-10.3185
败	-10.3191
响	-10.3197
愛	-10.3197
▁quickly	-10.3203
收集	-10.3206
临床	-10.3215
乎	-10.3216
姜	-10.3218
则是	-10.3219
▁bad	-10.3221
境	-10.3221
苗	-10.3228
货币	-10.3229
学会	-10.3229
▁treatment	-10.323
大众	-10.323
炒	-10.3233
胃	-10.3233
傳	-10.3235
▁cases	-10.3238
作出	-10.3239
index	-10.3241
▁ensure	-10.3241
驱动	-10.3243
郎	-10.3244
地说	-10.3246
后的	-10.3251
益	-10.3251
身边	-10.3256
就有	-10.3259
争	-10.3261
男子	-10.3265
会员	-10.327
▁red	-10.3273
病人	-10.3274
▁reading	-10.3275
空气	-10.3276
▁values	-10.3278
ge	-10.328
魂	-10.3282
▁users	-10.3283
泉	-10.3286
報	-10.3295
有时候	-10.3297
反对	-10.3298
▁consider	-10.3299
▁University	-10.3309
编辑	-10.3309
肝	-10.3311
吾	-10.3312
患	-10.3315
▁training	-10.332
隔	-10.3321
时候	-10.3321
同志	-10.3325
群体	-10.3327
维修	-10.3328
一套	-10.333
既然	-10.333
惊	-10.3331
▁necessary	-10.3333
好好	-10.3336
▁death	-10.3338
哪里	-10.3338
▁lead	-10.3339
采购	-10.334
甘	-10.3341
using	-10.3344
常常	-10.3344
也没	-10.3348
混合	-10.335
▁period	-10.3352
▁shown	-10.3352
蒂	-10.3352
▁industry	-10.3352
差不多	-10.3354
构成	-10.3356
▁film	-10.3356
▁message	-10.3361
净	-10.3361
way	-10.3369
做的	-10.337
color	-10.337
涨	-10.3371
请求	-10.3373
又是	-10.3377
护理	-10.338
最好的	-10.3382
贤	-10.3382
物理	-10.3383
爆	-10.3385
观众	-10.3386
奉	-10.3388
day	-10.339
属性	-10.3391
▁extra	-10.3395
遂	-10.34
你是	-10.34
▁continue	-10.3403
婚	-10.3403
▁instead	-10.3404
清洗	-10.3408
打算	-10.341
中文	-10.3411
专业的	-10.3411
决策	-10.3414
▁word	-10.3414
上涨	-10.3414
二是	-10.3421
身份	-10.3424
范	-10.3426
ga	-10.3431
场景	-10.3443
对此	-10.3447
一块	-10.345
职工	-10.345
上下	-10.3451
▁y	-10.3452
飞机	-10.3456
begin	-10.3457
▁mother	-10.3462
类似	-10.3466
▁office	-10.3466
left	-10.3467
残	-10.3473
汗	-10.3474
▁levels	-10.3475
▁com	-10.3475
哲学	-10.3476
爾	-10.3482
▁kids	-10.3482
else	-10.3483
顺利	-10.3486
▁himself	-10.3487
敏	-10.3488
▁World	-10.349
整合	-10.3492
▁hands	-10.3497
称为	-10.3497
暴	-10.3499
旁	-10.3502
扎	-10.3502
重庆	-10.3504
批准	-10.3506
信用	-10.351
观点	-10.3511
柱	-10.3513
▁win	-10.3513
女孩	-10.3517
▁art	-10.3526
亿美元	-10.3527
家人	-10.3528
两种	-10.353
淡	-10.353
厂家	-10.3532
呼	-10.3533
▁problems	-10.3538
本文	-10.3541
▁professional	-10.3543
mo	-10.3544
▁original	-10.3548
▁Get	-10.3548
并非	-10.355
力度	-10.3554
仓	-10.3561
top	-10.3579
▁impact	-10.3579
众多	-10.3583
▁answer	-10.3584
File	-10.3592
童	-10.3593
砂	-10.3594
▁path	-10.3603
申	-10.3604
覆盖	-10.3605
邀请	-10.3611
访问	-10.3613
集体	-10.3613
浅	-10.3618
岗位	-10.3621
爸爸	-10.3621
简	-10.3623
却是	-10.3623
▁--	-10.3624
▁morning	-10.3626
寺	-10.3627
球队	-10.3628
▁loss	-10.3632
重要的	-10.3633
煮	-10.3634
生长	-10.3636
At	-10.3638
矛盾	-10.364
技術	-10.3641
废	-10.3642
意外	-10.3647
▁seems	-10.3647
的需求	-10.3652
▁fire	-10.3658
日常	-10.366
▁fast	-10.3661
涂	-10.3666
發展	-10.3667
家具	-10.367
bar	-10.3674
▁safe	-10.3675
已經	-10.3676
呈现	-10.368
怒	-10.3682
▁security	-10.3684
震	-10.3685
普遍	-10.3686
考核	-10.3687
▁report	-10.3687
某些	-10.3687
伏	-10.3688
疼痛	-10.369
民主	-10.369
▁interest	-10.3695
成都	-10.3697
毕业	-10.3705
近期	-10.3706
吨	-10.3709
感谢	-10.371
▁policy	-10.3712
也不会	-10.3722
在中国	-10.3723
阳光	-10.3727
考生	-10.373
电池	-10.3732
▁brand	-10.3735
連	-10.3736
成熟	-10.3738
▁require	-10.3739
工作的	-10.3746
动态	-10.3747
▁friend	-10.3752
▁false	-10.3754
back	-10.3756
还没	-10.3756
将军	-10.3758
人数	-10.3759
幼	-10.3762
拖	-10.3765
进去	-10.3765
地址	-10.377
死了	-10.3774
最佳	-10.3774
孝	-10.3778
金额	-10.378
供应	-10.378
胸	-10.3781
°	-10.3784
Error	-10.3786
高速	-10.3786
res	-10.3787
完美	-10.3787
在于	-10.3788
进步	-10.3793
▁Dr	-10.3794
大会	-10.3796
華	-10.3796
cm	-10.3798
通信	-10.3799
▁knew	-10.3799
基层	-10.3805
▁percent	-10.3808
lib	-10.3809
一件	-10.3809
▁write	-10.3811
接着	-10.3811
ts	-10.3812
▁success	-10.3815
因而	-10.3816
等待	-10.3817
纪	-10.382
戰	-10.3821
led	-10.3821
▁cause	-10.3824
这一点	-10.3825
一声	-10.3827
/**	-10.3828
沿	-10.3829
炉	-10.3835
高中	-10.3836
▁felt	-10.3837
或者是	-10.3837
了一下	-10.384
破坏	-10.384
实在	-10.3841
red	-10.3843
就算	-10.3846
br	-10.3849
命令	-10.3854
▁players	-10.3854
迷	-10.3855
域	-10.3858
保存	-10.3861
浙江	-10.3867
▁expression	-10.3871
小学	-10.3872
answer	-10.3874
One	-10.3879
姑娘	-10.3879
▁potential	-10.388
互相	-10.3888
da	-10.3889
出生	-10.3889
▁easily	-10.389
博士	-10.389
周围	-10.3892
汇	-10.3894
议	-10.3895
▁performance	-10.3897
坑	-10.3897
That	-10.3897
划	-10.3898
更好	-10.3898
Our	-10.3899
规律	-10.3904
」，	-10.3907
▁Mo	-10.3915
堆	-10.3916
▁weeks	-10.392
前往	-10.392
▁Google	-10.3922
焦	-10.3924
下午	-10.3929
▁request	-10.3931
APP	-10.3931
我说	-10.3933
軍	-10.3934
矿	-10.3935
检	-10.3939
难道	-10.3942
呼吸	-10.3942
玛	-10.3948
当年	-10.3951
各地	-10.3954
▁May	-10.3956
迎	-10.3957
▁National	-10.396
眉	-10.3961
乳	-10.3962
▁anyone	-10.3965
校园	-10.3966
不行	-10.3967
▁talk	-10.3967
说的	-10.3968
家族	-10.3969
ak	-10.3976
军事	-10.3976
read	-10.3977
挑	-10.3978
漏	-10.3978
item	-10.3981
▁Her	-10.3981
尽量	-10.3982
良好	-10.3983
别的	-10.3984
看了	-10.3988
▁City	-10.399
▁▁▁▁▁	-10.399
另一个	-10.3991
出版	-10.3992
咖啡	-10.3998
立刻	-10.401
天气	-10.401
电源	-10.4013
多年	-10.4014
认证	-10.4014
不太	-10.4015
应对	-10.4017
体现	-10.4023
危险	-10.4023
早期	-10.4023
▁growth	-10.4024
谋	-10.4028
留下	-10.4032
的机会	-10.4033
对比	-10.4035
逻辑	-10.4036
骂	-10.4041
的行为	-10.4041
尺寸	-10.4042
經	-10.4047
允许	-10.4051
▁clean	-10.4051
▁provided	-10.4057
郡	-10.4059
态度	-10.4066
原本	-10.4066
周期	-10.4071
▁types	-10.4072
時間	-10.4074
清洁	-10.4075
艺	-10.4076
兒	-10.4079
邪	-10.4081
▁blood	-10.4085
姓	-10.4086
柜	-10.4088
ph	-10.409
举办	-10.4091
显著	-10.4097
ard	-10.41
红色	-10.4102
▁areas	-10.4103
女子	-10.4103
▁purchase	-10.4105
前面	-10.4105
孟	-10.4106
翻译	-10.4109
逼	-10.4112
害怕	-10.4118
考察	-10.4119
辛	-10.4122
▁bar	-10.4124
▁late	-10.4124
芳	-10.4125
财富	-10.4127
祥	-10.413
注重	-10.4131
节目	-10.4132
assert	-10.4133
返回	-10.4134
link	-10.4134
▁average	-10.4134
▁blog	-10.4134
高效	-10.4135
煤	-10.4135
▁significant	-10.414
便宜	-10.4141
闲	-10.4142
学术	-10.4144
She	-10.4145
▁activity	-10.4147
必然	-10.4151
▁choice	-10.4151
公告	-10.4152
诊断	-10.4152
互动	-10.4156
沒	-10.416
se	-10.4161
▁la	-10.4163
擦	-10.4163
读书	-10.4163
想象	-10.4164
搭	-10.4168
军队	-10.4168
▁began	-10.4168
year	-10.417
般	-10.4172
时尚	-10.4174
己	-10.4175
无论是	-10.4175
监测	-10.4175
赫	-10.4176
武汉	-10.4176
回去	-10.4179
分子	-10.4181
off	-10.4181
累计	-10.4185
一道	-10.4191
修复	-10.4192
▁Mr	-10.4192
▁item	-10.4193
▁terms	-10.4193
les	-10.4194
▁Please	-10.4197
}{	-10.4197
相同	-10.4202
销	-10.4202
▁party	-10.4202
失去	-10.4209
▁law	-10.4211
赤	-10.4218
加速	-10.4219
也在	-10.4221
天津	-10.4221
公布	-10.4223
▁ground	-10.4228
宗教	-10.4229
恒	-10.4236
單	-10.4244
近年来	-10.4249
▁turned	-10.425
名字	-10.4251
▁six	-10.4252
▁Go	-10.4256
map	-10.4258
▁Con	-10.426
发出	-10.4261
在此	-10.4267
▁expected	-10.4269
高考	-10.4271
每一个	-10.4271
也很	-10.4273
▁chance	-10.4274
恨	-10.428
差异	-10.4281
▁John	-10.4282
超级	-10.4283
▁object	-10.4284
泥	-10.4291
max	-10.4294
联盟	-10.4295
▁...	-10.4296
摆	-10.4299
約	-10.4305
師	-10.4309
海外	-10.431
管道	-10.4311
负责人	-10.4312
});	-10.4313
桑	-10.4318
优质	-10.4319
浪	-10.4319
▁fresh	-10.4329
工作人员	-10.433
head	-10.4334
裡	-10.4335
▁pretty	-10.4337
它是	-10.4339
不得不	-10.4339
pa	-10.4343
两年	-10.4343
系統	-10.4344
模	-10.4346
▁From	-10.4347
服务器	-10.4348
ial	-10.4351
///	-10.4352
更为	-10.4353
积	-10.4355
预算	-10.4357
检验	-10.4364
表演	-10.4367
宏	-10.4369
疑	-10.437
妙	-10.4371
币	-10.4372
俊	-10.4373
企	-10.4373
企业的	-10.4377
▁Facebook	-10.4378
▁reported	-10.4379
四个	-10.438
在这	-10.4384
with	-10.4386
▁multiple	-10.4388
加大	-10.4391
▁fine	-10.4391
原料	-10.4393
吊	-10.4393
▁conditions	-10.4396
得到了	-10.4396
全市	-10.4397
居然	-10.4399
定期	-10.4402
事实上	-10.4404
▁sound	-10.4404
啥	-10.4406
深度	-10.4407
▁playing	-10.4409
高手	-10.441
彼此	-10.4412
本来	-10.4413
php	-10.4423
即将	-10.4427
签	-10.4429
▁summer	-10.4431
泵	-10.4432
▁sign	-10.4437
box	-10.4439
col	-10.444
▁particular	-10.444
▁difficult	-10.4446
页面	-10.4446
PS	-10.4447
乔	-10.4448
利率	-10.4451
lin	-10.4451
卢	-10.4452
朗	-10.4454
▁String	-10.4456
很少	-10.4464
▁base	-10.4467
▁woman	-10.4467
▁war	-10.4468
}}	-10.4474
名称	-10.4475
队伍	-10.4485
frac	-10.4486
問題	-10.4488
意大利	-10.449
颜	-10.4493
重复	-10.4498
活動	-10.4499
▁Or	-10.4507
甜	-10.4509
劲	-10.4513
▁entire	-10.4516
至今	-10.4522
产量	-10.4522
在这个	-10.4528
本地	-10.4528
▁recent	-10.4531
方面的	-10.4535
而不	-10.4536
bo	-10.4536
len	-10.4542
小姐	-10.4544
尊重	-10.4548
▁directly	-10.4549
小编	-10.455
羽	-10.4552
▁meet	-10.4555
杆	-10.4564
要注意	-10.4564
另	-10.4567
▁positive	-10.4567
ng	-10.457
▁While	-10.457
▁lost	-10.4572
谓	-10.4575
细节	-10.4579
▁lives	-10.4584
聊	-10.4584
▁al	-10.4585
先后	-10.4586
的效果	-10.4588
▁solution	-10.4589
觉	-10.4591
▁couple	-10.4594
四川	-10.4597
▁screen	-10.4601
▁basic	-10.4603
摩	-10.4605
▁individual	-10.4605
尘	-10.4606
很容易	-10.4611
圖	-10.4613
Value	-10.4613
股份	-10.4613
案例	-10.4618
转移	-10.462
反而	-10.462
十二	-10.4621
霍	-10.4621
典	-10.4626
▁Man	-10.4631
ice	-10.464
▁Y	-10.4644
Test	-10.4644
大的	-10.4652
大约	-10.4652
闹	-10.4654
row	-10.4655
十年	-10.4656
聽	-10.4658
▁South	-10.4658
种植	-10.4658
另一	-10.4661
吃饭	-10.4661
也不是	-10.4663
一生	-10.4665
▁network	-10.4666
鼻	-10.4667
變	-10.4668
生存	-10.4675
▁st	-10.4675
▁staff	-10.4677
最低	-10.4682
▁father	-10.4682
▁hit	-10.4683
▁books	-10.4683
危机	-10.4684
招聘	-10.4689
▁looks	-10.469
主任	-10.4692
少年	-10.4697
疏	-10.4699
side	-10.4699
存储	-10.4701
什麼	-10.4704
局部	-10.4706
接下来	-10.4708
ex	-10.4709
怀疑	-10.4712
赴	-10.4712
▁str	-10.4716
这类	-10.4721
承认	-10.4721
不大	-10.4721
可以在	-10.4722
奶	-10.4722
高端	-10.4723
拼	-10.4728
商家	-10.4732
▁location	-10.4733
▁learning	-10.4734
▁received	-10.4736
识别	-10.474
IT	-10.4741
历	-10.4744
";	-10.4744
仿佛	-10.4745
寻	-10.4748
▁pain	-10.4749
ped	-10.4751
下的	-10.4753
证书	-10.4756
稍	-10.4757
▁track	-10.4763
读者	-10.477
棒	-10.4775
der	-10.4776
field	-10.4777
旅行	-10.478
▁includes	-10.4782
肌	-10.4782
较大	-10.4785
材	-10.4785
链接	-10.4786
等方面	-10.4787
室内	-10.479
跟着	-10.4791
消防	-10.4792
先进	-10.4792
河南	-10.4793
ca	-10.4801
龍	-10.4803
▁Is	-10.4803
科研	-10.4804
成就	-10.4804
明天	-10.4806
▁Le	-10.4808
▁hear	-10.4808
〔	-10.4808
充满	-10.481
▁additional	-10.4811
蛇	-10.4813
小孩	-10.4817
▁favorite	-10.4818
提交	-10.4819
主体	-10.4819
▁daily	-10.4821
▁held	-10.4822
▁wrong	-10.4822
state	-10.4827
he	-10.4832
贾	-10.4834
昨天	-10.4837
▁North	-10.4837
调研	-10.4838
腹	-10.484
一个月	-10.4846
炮	-10.4848
▁center	-10.4851
乙	-10.4851
的孩子	-10.4853
论坛	-10.4853
现在的	-10.4858
练习	-10.4859
▁None	-10.486
围绕	-10.4861
▁themselves	-10.4865
().	-10.4873
▁comments	-10.4875
width	-10.4875
▁focus	-10.4876
ee	-10.4876
屏幕	-10.4878
白色	-10.4879
▁difference	-10.4881
足球	-10.4883
回收	-10.4883
审计	-10.4885
▁et	-10.4887
om	-10.489
▁included	-10.4894
一句	-10.4898
刑	-10.49
审	-10.4901
▁feature	-10.4903
問	-10.4904
▁remember	-10.4904
预期	-10.4906
浩	-10.4906
▁Ro	-10.4908
你就	-10.4911
论文	-10.4912
▁watch	-10.4914
关键词	-10.4914
事故	-10.4916
财产	-10.4916
▁itself	-10.4917
刚才	-10.4918
ci	-10.4918
熊	-10.4921
▁worth	-10.4925
创作	-10.4936
so	-10.4942
▁//	-10.4944
其次	-10.4945
▁break	-10.4949
角度	-10.4953
▁heard	-10.4956
看起来	-10.4957
基因	-10.4966
▁attention	-10.4968
▁essential	-10.4976
吐	-10.4979
有利于	-10.4983
观念	-10.4993
的好	-10.4993
禁止	-10.4995
充	-10.4998
定制	-10.4999
瘦	-10.5
疾	-10.5002
拆	-10.5002
把握	-10.5006
障碍	-10.5008
巨大的	-10.5015
〕	-10.5015
▁road	-10.5018
武器	-10.5021
勤	-10.5023
后期	-10.5023
的价格	-10.5024
不然	-10.5025
显得	-10.5028
不但	-10.5029
辞	-10.5029
岁的	-10.5032
撞	-10.5032
▁Me	-10.5035
鸣	-10.5035
偷	-10.5037
埃	-10.5043
▁provides	-10.5043
▁software	-10.5045
腾讯	-10.5049
db	-10.5049
▁Don	-10.5055
Object	-10.5055
▁stories	-10.5058
的食物	-10.5061
奖励	-10.5063
白癜风	-10.5063
df	-10.5064
跌	-10.5064
能量	-10.5065
档	-10.5068
赚钱	-10.5072
our	-10.5073
辅助	-10.5073
市場	-10.5075
售	-10.5076
密码	-10.5077
佩	-10.5079
的样子	-10.5083
op	-10.5083
空调	-10.5084
▁sent	-10.5085
▁States	-10.5086
▁Of	-10.5088
水果	-10.5089
见到	-10.5093
▁gave	-10.5097
稳	-10.5099
▁multi	-10.5099
大家都	-10.5102
和平	-10.5103
演员	-10.5109
▁box	-10.5112
▁police	-10.5115
▁More	-10.5118
产品的	-10.5124
品种	-10.5124
▁green	-10.5126
维生素	-10.5129
選	-10.513
▁town	-10.5132
塑料	-10.5133
他人	-10.5135
律	-10.5135
生成	-10.5143
天然	-10.5143
作家	-10.5147
杭州	-10.5149
我现在	-10.5149
适用于	-10.5151
冠军	-10.5152
▁Mar	-10.5157
审核	-10.5157
开启	-10.5163
é	-10.5169
记得	-10.5171
柔	-10.5173
config	-10.5174
冲突	-10.5176
听说	-10.5185
熟悉	-10.5191
润	-10.5194
▁tried	-10.5198
另一方面	-10.52
早已	-10.5201
▁static	-10.5203
())	-10.5208
席	-10.521
▁o	-10.5211
电力	-10.5213
鲜	-10.5215
忽然	-10.5216
此前	-10.5219
嗎	-10.522
▁groups	-10.5222
den	-10.5222
殿	-10.5229
▁App	-10.5231
over	-10.5232
通道	-10.5235
截至	-10.5236
▁l	-10.5237
gen	-10.5239
▁throughout	-10.5241
▁Day	-10.5245
一款	-10.525
大学生	-10.525
显然	-10.5252
丈夫	-10.5254
網	-10.5255
笑道	-10.5256
键	-10.5257
▁device	-10.5257
▁en	-10.5263
唯一	-10.5271
尿	-10.5271
▁etc	-10.5273
▁sites	-10.5274
▁studies	-10.5275
號	-10.5276
自主	-10.5276
肥	-10.5279
ure	-10.5282
▁dog	-10.5282
▁application	-10.5285
▁compared	-10.5287
公园	-10.529
战斗	-10.5295
账	-10.5295
▁我们	-10.5296
▁Car	-10.5297
猛	-10.5298
警察	-10.5308
』	-10.5312
主席	-10.5313
▁__	-10.5317
▁private	-10.5318
账户	-10.5321
▁target	-10.5322
▁designed	-10.5323
▁super	-10.5326
達	-10.5327
隐	-10.5327
After	-10.5327
各项	-10.5328
}$	-10.5329
枝	-10.5332
市民	-10.5332
男性	-10.5336
亚洲	-10.5337
诚	-10.534
撒	-10.5342
▁wide	-10.5349
▁cover	-10.5354
球员	-10.5354
sa	-10.5358
但在	-10.5358
body	-10.5359
的历史	-10.5359
▁wasn	-10.5359
脂	-10.536
才会	-10.536
▁myself	-10.5362
▁hold	-10.5363
有限	-10.5365
紅	-10.537
碎	-10.5382
某种	-10.5384
ise	-10.5384
▁j	-10.5384
粮	-10.5386
删除	-10.5387
ative	-10.5388
暖	-10.5388
述	-10.5391
故障	-10.5392
小米	-10.5395
研	-10.5397
把它	-10.5406
▁previous	-10.5407
Your	-10.5408
▁release	-10.5408
走向	-10.5409
病情	-10.5413
依法	-10.5422
网友	-10.5423
胜利	-10.5424
东方	-10.5426
pi	-10.5427
台灣	-10.5429
学者	-10.543
肺	-10.5431
很好的	-10.5435
指挥	-10.5435
济	-10.5437
这种情况	-10.5439
咬	-10.5442
胎	-10.5444
是我	-10.5444
開始	-10.5445
▁standard	-10.5446
Why	-10.5451
模块	-10.5454
▁State	-10.5459
▁became	-10.546
育	-10.5465
拍摄	-10.5469
ig	-10.5469
出发	-10.547
迁	-10.547
痛苦	-10.5477
▁hot	-10.548
▁allows	-10.5482
理想	-10.5482
地点	-10.5484
辆	-10.5486
小区	-10.5486
(\	-10.5487
面试	-10.5488
▁House	-10.5489
▁approach	-10.549
相应的	-10.5493
種	-10.5495
菌	-10.5499
ger	-10.5502
机器人	-10.5506
難	-10.5506
服装	-10.5507
棉	-10.5508
权力	-10.5508
业绩	-10.5513
消除	-10.5515
时刻	-10.5516
经典	-10.5517
放入	-10.5518
这款	-10.5522
};	-10.5523
设立	-10.5526
▁worked	-10.5528
▁match	-10.553
▁di	-10.5531
pt	-10.5533
▁eye	-10.5534
質	-10.5534
完整	-10.5535
消失	-10.5535
極	-10.5539
一人	-10.554
批评	-10.5541
犯罪	-10.5545
業	-10.5548
是以	-10.555
的结果	-10.555
▁array	-10.5553
头发	-10.5554
的变化	-10.5555
現在	-10.5558
欢	-10.5561
men	-10.5561
▁related	-10.5561
清理	-10.5562
取消	-10.5563
▁technology	-10.5563
新增	-10.5564
壮	-10.5565
和其他	-10.5565
▁System	-10.5566
▁!=	-10.5566
情感	-10.5571
总统	-10.5571
人工	-10.5572
we	-10.5572
暂时	-10.5579
人体	-10.558
▁walk	-10.5581
人群	-10.5582
我会	-10.5583
▁parents	-10.5585
的目的	-10.5586
准确	-10.5587
冯	-10.5588
try	-10.559
▁customer	-10.5591
蔡	-10.5593
中医	-10.5593
▁w	-10.5594
▁voice	-10.5599
▁sales	-10.56
全体	-10.5604
爲	-10.5607
▁amazing	-10.5613
兹	-10.5614
▁fall	-10.5619
权利	-10.5626
不出	-10.5628
▁healthy	-10.5628
播	-10.5628
地面	-10.5629
▁effects	-10.5629
con	-10.5631
御	-10.5635
互	-10.5642
▁built	-10.5643
▁deep	-10.5646
ha	-10.5648
序	-10.5657
这也是	-10.5658
oc	-10.566
detail	-10.5661
▁Park	-10.5663
大陆	-10.5664
▁America	-10.5673
ler	-10.5673
▁structure	-10.5673
砖	-10.5675
陶	-10.5684
▁ex	-10.5686
中国的	-10.5686
劝	-10.5687
這些	-10.5691
纹	-10.5692
”（	-10.5693
较为	-10.5695
ries	-10.5696
一定的	-10.5697
帕	-10.5701
▁practice	-10.5705
滴	-10.5708
进来	-10.571
nd	-10.5712
纷纷	-10.5713
第五	-10.5714
收费	-10.5717
显卡	-10.5722
旅	-10.5725
一方面	-10.5732
℃	-10.5732
拟	-10.5736
律师	-10.5737
华为	-10.5738
庭	-10.5743
用的	-10.5744
▁record	-10.5748
锦	-10.575
喊	-10.5751
▁dark	-10.5755
ship	-10.5757
航空	-10.5759
五年	-10.5763
▁Trump	-10.5763
框架	-10.5764
之所以	-10.5765
ors	-10.5768
▁goal	-10.5768
地球	-10.5768
走到	-10.577
定义	-10.5772
亡	-10.5772
保留	-10.5773
App	-10.5775
的名字	-10.5775
Key	-10.5776
明星	-10.5776
铝	-10.5777
缓解	-10.5779
理由	-10.578
based	-10.5782
An	-10.5786
可见	-10.5787
分布	-10.5787
▁gives	-10.579
相关的	-10.5791
上去	-10.5792
流行	-10.5796
翼	-10.5801
卿	-10.5804
▁tax	-10.5804
▁Home	-10.5808
rm	-10.5809
实验室	-10.5813
▁currently	-10.5816
电商	-10.5816
物品	-10.5817
接口	-10.5819
监	-10.5821
ms	-10.5821
反复	-10.5823
的意思	-10.5825
ions	-10.5826
游客	-10.5827
的力量	-10.5828
▁recently	-10.5829
碳	-10.5829
我知道	-10.5829
宇宙	-10.5834
策	-10.5835
▁insurance	-10.5837
They	-10.5839
登录	-10.5839
街道	-10.5839
客观	-10.5839
同比增长	-10.584
api	-10.5843
▁goes	-10.5845
牧	-10.5845
闭	-10.585
ka	-10.585
万人	-10.585
不必	-10.5853
▁seem	-10.5853
有可能	-10.5855
▁land	-10.5856
而在	-10.5856
裂	-10.5863
斜	-10.5863
蔬菜	-10.5864
▁marketing	-10.5864
tro	-10.5865
▁opportunity	-10.5868
干燥	-10.5871
最多	-10.5877
▁Ca	-10.5879
告诉我	-10.5882
ps	-10.5882
房地产	-10.5883
发展的	-10.5883
！！	-10.5886
晨	-10.5887
▁normal	-10.5889
void	-10.5889
官员	-10.5891
亭	-10.5892
阀	-10.5893
荒	-10.5895
粒	-10.5896
遍	-10.5904
▁variety	-10.5905
记忆	-10.5905
的基本	-10.591
没什么	-10.5911
写作	-10.5911
▁title	-10.5911
▁Bo	-10.5913
用来	-10.5914
肠	-10.5914
那就是	-10.5914
房间	-10.5916
人工智能	-10.5918
天天	-10.592
奔	-10.5924
问道	-10.5926
雙	-10.5928
引起的	-10.5931
▁Na	-10.5931
的过程	-10.5933
脸上	-10.5937
拿到	-10.5941
ap	-10.5942
▁completely	-10.5942
content	-10.5945
ell	-10.595
仔细	-10.5951
▁reach	-10.5952
不一样	-10.5952
自行	-10.5955
不住	-10.5959
▁speed	-10.596
经理	-10.5965
什么时候	-10.5967
形势	-10.5969
零售	-10.597
俗	-10.5971
github	-10.5978
徒	-10.5981
机场	-10.5981
提出了	-10.5982
case	-10.5984
国外	-10.5984
森林	-10.5984
芯片	-10.5987
淘宝	-10.6003
心情	-10.6003
寿	-10.6004
▁uses	-10.6005
di	-10.6009
最重要的	-10.6014
够	-10.6019
岸	-10.602
色彩	-10.602
妻子	-10.6021
一把	-10.6021
研究生	-10.603
关闭	-10.603
▁Ra	-10.6031
的信息	-10.6034
▁heat	-10.6035
江苏	-10.6037
随时	-10.6038
海洋	-10.6038
销量	-10.604
本科	-10.6042
肿瘤	-10.6042
习	-10.6043
面临	-10.6045
怀孕	-10.6046
效应	-10.6048
收购	-10.6051
赚	-10.6055
mb	-10.6056
拓展	-10.6056
认	-10.6059
几天	-10.6059
▁pick	-10.6061
▁ability	-10.6063
盆	-10.6067
兽	-10.6068
粉丝	-10.607
tic	-10.607
▁expect	-10.6074
▁showed	-10.6075
日前	-10.6078
大人	-10.6078
三大	-10.608
驻	-10.6085
精准	-10.6085
大师	-10.6085
▁wait	-10.6088
▁avoid	-10.6096
▁increased	-10.6096
▁production	-10.61
價	-10.6103
們	-10.6105
mon	-10.6107
肌肉	-10.6107
▁considered	-10.6109
疼	-10.6109
腾	-10.611
硬件	-10.6112
爆发	-10.612
地图	-10.612
ong	-10.6121
付出	-10.6122
▁default	-10.6124
将来	-10.6126
默	-10.6127
摸	-10.6132
▁huge	-10.6136
▁condition	-10.6137
授权	-10.6138
▁financial	-10.6138
style	-10.6138
为何	-10.6139
▁Sa	-10.6139
凭	-10.614
▁nice	-10.6145
●	-10.6145
別	-10.6148
吕	-10.6151
贼	-10.6154
强度	-10.6154
級	-10.6155
error	-10.6157
买了	-10.6158
了很多	-10.6161
输	-10.6161
学历	-10.6164
婚姻	-10.6164
PC	-10.617
回应	-10.6172
－	-10.6173
可以通过	-10.6173
▁ideas	-10.6173
有效的	-10.6175
替	-10.6175
基本上	-10.6179
▁TV	-10.6179
Exception	-10.6181
妖	-10.6188
格式	-10.619
▁recommend	-10.6192
▁custom	-10.6193
中学	-10.6196
▁helps	-10.6199
巧	-10.6201
起了	-10.6203
cite	-10.6203
遠	-10.6204
一路	-10.6208
append	-10.6212
辉	-10.6213
▁surface	-10.6214
解决方案	-10.6215
哥哥	-10.6217
img	-10.622
漆	-10.6222
戈	-10.6229
▁involved	-10.6235
▁knowledge	-10.6237
▁career	-10.6238
▁note	-10.6239
所在	-10.624
帅	-10.6242
ke	-10.6243
霜	-10.6243
group	-10.6245
▁anti	-10.6247
▁log	-10.6248
司法	-10.6249
init	-10.625
国王	-10.6257
脉	-10.6259
货物	-10.626
▁West	-10.6262
支出	-10.6263
岗	-10.6268
▁fit	-10.6272
▁window	-10.6273
黑色	-10.6275
译	-10.6276
▁stand	-10.6278
带来的	-10.6279
是为了	-10.6279
平安	-10.6283
cing	-10.6287
打击	-10.6291
的目标	-10.6292
▁decision	-10.6293
但他	-10.6294
同步	-10.6295
▁select	-10.6304
view	-10.6306
肩	-10.6307
面向	-10.6308
▁relationship	-10.6311
办公	-10.6312
蛋白	-10.6314
消耗	-10.6314
▁round	-10.6319
Please	-10.6319
▁ones	-10.632
性格	-10.6321
▁double	-10.6321
戒	-10.6322
▁spend	-10.6327
上帝	-10.633
相反	-10.6334
辰	-10.6337
招生	-10.6338
监控	-10.6339
▁feeling	-10.634
返	-10.634
帮忙	-10.634
尤其	-10.6341
▁piece	-10.6345
古代	-10.6345
昭	-10.6346
融	-10.6358
锻炼	-10.6363
ns	-10.6363
全新	-10.6364
分离	-10.6365
是有	-10.6366
区别	-10.6369
泪	-10.637
De	-10.6371
能不能	-10.6372
配套	-10.6373
石油	-10.6374
放心	-10.6377
▁situation	-10.6378
▁Ad	-10.6378
我们在	-10.6378
年轻人	-10.6379
不良	-10.6382
▁associated	-10.6383
▁saying	-10.6384
碰	-10.6388
微博	-10.6392
的过程中	-10.6393
pe	-10.6394
一座	-10.6396
AI	-10.6399
清晰	-10.6402
两次	-10.6406
填	-10.6406
可以用	-10.641
▁San	-10.641
全省	-10.6412
的一些	-10.6412
自信	-10.6414
强大的	-10.6415
避	-10.6416
沟	-10.6419
ER	-10.642
渡	-10.642
丰富的	-10.642
▁Just	-10.6421
▁term	-10.6422
Set	-10.6422
男生	-10.6423
一批	-10.6424
▁material	-10.6431
舒	-10.644
一面	-10.6441
姐	-10.6442
的数据	-10.6443
晶	-10.6443
的态度	-10.6444
▁English	-10.6448
裝	-10.645
两个人	-10.6452
尤	-10.6456
▁grow	-10.6461
桃	-10.6462
释放	-10.6463
依靠	-10.6465
not	-10.6467
▁sun	-10.6468
抓住	-10.6468
外部	-10.647
骑	-10.6473
["	-10.648
挖	-10.6483
每日	-10.6484
斯特	-10.6485
居住	-10.6486
▁member	-10.6487
说了	-10.6489
珍	-10.6489
▁giving	-10.6489
债	-10.649
壳	-10.6495
ina	-10.6495
▁environment	-10.6497
一项	-10.6502
New	-10.6504
就不	-10.6506
▁decided	-10.651
启	-10.6512
▁towards	-10.6513
他就	-10.6514
巨大	-10.6515
▁wish	-10.6515
热情	-10.6516
赶	-10.6516
tor	-10.6517
ham	-10.6519
Be	-10.6519
▁feet	-10.652
承诺	-10.6522
下跌	-10.6524
▁remove	-10.6526
▁drive	-10.6527
浓	-10.6528
场所	-10.6529
▁Vi	-10.6529
▁former	-10.653
决	-10.6533
▁computer	-10.654
▁tips	-10.6541
選擇	-10.6542
▁protein	-10.6543
▁files	-10.6543
▁trip	-10.6543
amp	-10.6545
▁region	-10.6547
▁character	-10.6547
▁written	-10.6551
▁eat	-10.6556
扫	-10.6557
穷	-10.6557
two	-10.6558
传奇	-10.6561
嗯	-10.6562
也就是说	-10.6562
▁blue	-10.6563
▁hour	-10.6567
穆	-10.6569
▁exactly	-10.6569
究竟	-10.6573
当天	-10.6575
的位置	-10.6584
二十	-10.6586
ron	-10.6589
％	-10.6591
▁org	-10.6596
Request	-10.6598
▁War	-10.6599
權	-10.66
万吨	-10.6605
▁trade	-10.6605
垂	-10.6606
ut	-10.6606
人民币	-10.6609
优惠	-10.6609
兄	-10.6609
孤	-10.6609
切实	-10.6609
公主	-10.6611
▁stage	-10.6614
一部分	-10.662
更换	-10.6623
Service	-10.6623
候	-10.6624
幾	-10.6625
改进	-10.663
并在	-10.6633
特性	-10.6636
同一	-10.6638
ah	-10.6649
公路	-10.6651
这两个	-10.6654
▁Li	-10.6655
伴	-10.6656
幕	-10.6657
书记	-10.6664
的所有	-10.6664
困	-10.6667
能否	-10.667
把他	-10.6671
事务	-10.6673
形态	-10.6674
肯	-10.6675
▁Let	-10.6677
dir	-10.668
前期	-10.668
▁quick	-10.668
▁sometimes	-10.6684
作战	-10.6685
國家	-10.6685
▁sleep	-10.6685
落地	-10.6686
周边	-10.6688
遗	-10.6689
部位	-10.669
袁	-10.6691
低于	-10.6694
弟	-10.6694
食用	-10.6696
履行	-10.6697
数据库	-10.6698
▁highly	-10.6698
▁inter	-10.6703
满意	-10.6705
!!	-10.6705
岳	-10.6706
日期	-10.6707
仲	-10.6707
▁alone	-10.6716
主持	-10.6716
陪	-10.6717
叔	-10.6721
干净	-10.6724
▁thinking	-10.6727
▁update	-10.6728
▁你	-10.673
幽	-10.6734
专利	-10.6734
▁mobile	-10.6735
家的	-10.6736
祭	-10.6737
▁benefits	-10.674
桂	-10.6743
生產	-10.6745
還是	-10.6746
氧	-10.6746
▁但是	-10.6753
▁Also	-10.6755
国务院	-10.6756
图像	-10.6757
▁subject	-10.6757
一直在	-10.6758
▁Make	-10.6759
▁sell	-10.676
"></	-10.6761
▁fight	-10.6763
是谁	-10.6765
的基础上	-10.6768
引发	-10.6768
▁nature	-10.6769
上班	-10.677
界面	-10.6775
假如	-10.6779
bi	-10.6779
著名	-10.6782
▁length	-10.6784
';	-10.6784
array	-10.6786
▁所以	-10.6787
积累	-10.6787
创意	-10.6787
一支	-10.6788
毫无	-10.6791
姐姐	-10.6792
main	-10.6795
耶	-10.6798
▁methods	-10.68
bb	-10.68
现金	-10.6803
对手	-10.6808
孩子们	-10.6809
贷	-10.681
));	-10.681
意味着	-10.681
示范	-10.6815
▁national	-10.6818
和谐	-10.682
染	-10.6822
技	-10.6823
妇女	-10.6825
▁lines	-10.6825
▁charge	-10.6826
▁Un	-10.6826
已有	-10.6826
▁Most	-10.6827
下了	-10.6827
count	-10.6829
莉	-10.683
开心	-10.6832
邊	-10.6833
简单的	-10.6835
▁sea	-10.6843
▁regular	-10.6843
設備	-10.6844
ag	-10.6844
碧	-10.6845
Here	-10.6851
▁countries	-10.6854
俄	-10.6854
一线	-10.6856
思路	-10.6857
▁section	-10.686
一阵	-10.6867
全身	-10.6869
汁	-10.6872
若是	-10.6873
『	-10.6873
申报	-10.6873
▁culture	-10.6874
語	-10.6874
RE	-10.6876
image	-10.6876
广场	-10.6878
更高	-10.6879
操	-10.688
run	-10.6881
亩	-10.6882
威胁	-10.6891
層	-10.6892
▁cold	-10.6894
仪式	-10.6895
垫	-10.6898
成分	-10.6898
补贴	-10.6898
没有任何	-10.6899
......	-10.6902
她说	-10.6903
涉	-10.6911
目录	-10.6912
算是	-10.6912
沃	-10.6915
路线	-10.6915
弗	-10.6919
的想法	-10.692
一眼	-10.6922
什么是	-10.6923
炸	-10.6924
port	-10.6925
%；	-10.6927
節	-10.6931
回复	-10.6931
所述	-10.6933
不過	-10.6934
睡眠	-10.6935
▁brought	-10.6936
];	-10.6936
尚未	-10.6939
▁gift	-10.6941
天地	-10.6942
会不会	-10.6942
▁parts	-10.6945
寸	-10.6945
炼	-10.6945
由此	-10.6946
base	-10.695
▁News	-10.695
][	-10.6953
示	-10.6955
敌人	-10.6957
年前	-10.6959
request	-10.696
贺	-10.696
审查	-10.6961
▁begin	-10.6964
▁photo	-10.6965
▁moving	-10.6967
中国人	-10.697
提到	-10.6972
▁host	-10.6979
共有	-10.6979
社会主义	-10.6979
要素	-10.6981
献	-10.6981
临时	-10.6986
拳	-10.6987
原理	-10.6988
损伤	-10.6989
莲	-10.6989
实时	-10.6994
ier	-10.6995
▁stock	-10.6997
）；	-10.6997
一句话	-10.7
▁images	-10.7001
▁Chinese	-10.7005
result	-10.7005
购	-10.7006
ED	-10.7007
黃	-10.7011
▁starting	-10.7017
！！！	-10.7018
开了	-10.7019
board	-10.7025
▁https	-10.7028
info	-10.7031
話	-10.7031
的精神	-10.7033
一步	-10.7034
num	-10.7034
彭	-10.7037
罐	-10.7038
购物	-10.704
供给	-10.7048
include	-10.7049
的研究	-10.7051
通過	-10.7054
第二天	-10.7056
json	-10.7056
bin	-10.7057
激光	-10.706
▁block	-10.7062
相应	-10.7062
▁happen	-10.7064
斑	-10.7064
灵活	-10.7068
化工	-10.7071
▁located	-10.7079
的企业	-10.7081
纤维	-10.7086
▁pressure	-10.7089
睡觉	-10.7089
醒	-10.709
▁prices	-10.7091
素质	-10.7091
▁creating	-10.7093
订单	-10.7096
误	-10.7098
某个	-10.71
ana	-10.7102
縣	-10.7104
小组	-10.7106
▁np	-10.7106
讯	-10.7107
又有	-10.7107
半年	-10.7108
了吗	-10.7109
▁played	-10.7111
密封	-10.7112
占比	-10.7114
将其	-10.7114
美國	-10.7116
▁player	-10.7117
Can	-10.712
癌	-10.7121
公民	-10.7122
▁author	-10.7122
扑	-10.7123
赖	-10.7128
飘	-10.7135
▁>	-10.7136
遭	-10.7137
脂肪	-10.7138
▁Black	-10.7138
Text	-10.714
一段时间	-10.7141
含有	-10.7143
赢	-10.7145
敏感	-10.7148
▁disease	-10.715
sp	-10.7154
含量	-10.7155
制品	-10.7159
▁County	-10.716
更有	-10.7161
▁models	-10.7161
IC	-10.7161
都没	-10.7161
籍	-10.7162
责	-10.7165
。《	-10.7165
▁places	-10.7168
▁prevent	-10.7176
过度	-10.7176
length	-10.718
专用	-10.7181
湖南	-10.7182
▁language	-10.7186
信任	-10.7187
▁auto	-10.7192
train	-10.7195
设定	-10.7196
去做	-10.7197
佐	-10.7197
▁digital	-10.7198
ub	-10.7202
现有	-10.7202
sum	-10.7205
鹿	-10.7205
收获	-10.7206
反正	-10.7209
流动	-10.721
中有	-10.7211
离婚	-10.7211
党的	-10.7211
适当	-10.7214
洁	-10.7218
视觉	-10.722
稱	-10.7221
▁pass	-10.7224
▁global	-10.7224
▁baby	-10.7227
妈	-10.7228
算法	-10.723
po	-10.723
相關	-10.7231
滚	-10.7232
看到了	-10.7232
之类的	-10.7234
▁School	-10.7236
复制	-10.7238
▁released	-10.7239
▁First	-10.7242
个体	-10.7243
这件事	-10.7244
▁wife	-10.7244
赞	-10.7245
一定会	-10.7247
模拟	-10.7247
均匀	-10.7249
什么样的	-10.7249
依赖	-10.7254
rate	-10.726
不懂	-10.7261
產	-10.7263
▁clients	-10.7263
node	-10.7267
蒸	-10.7267
符	-10.7268
总体	-10.7271
引进	-10.7272
理性	-10.7275
事项	-10.7275
市场的	-10.7275
似的	-10.7278
▁touch	-10.7281
ba	-10.7281
▁band	-10.7296
From	-10.7297
联赛	-10.7297
百姓	-10.7299
手中	-10.73
弯	-10.7302
商务	-10.7302
的确	-10.7303
ical	-10.7306
oo	-10.7307
兴趣	-10.7308
▁enter	-10.7308
指定	-10.7309
让他们	-10.7311
厨房	-10.7313
教材	-10.7314
药品	-10.7314
bit	-10.7316
梦想	-10.7316
▁couldn	-10.7317
肖	-10.7318
GB	-10.7318
▁steps	-10.7325
女士	-10.7326
没想到	-10.733
窗口	-10.733
同時	-10.733
▁cancer	-10.7331
像是	-10.7333
▁modern	-10.7333
▁effective	-10.7333
Now	-10.7344
▁button	-10.7345
成為	-10.7348
所谓的	-10.7353
▁floor	-10.7358
服用	-10.7358
照顾	-10.7359
气体	-10.7359
▁cool	-10.736
視	-10.7361
▁Friday	-10.7362
▁join	-10.7362
▁Q	-10.7364
尽快	-10.7364
用品	-10.7365
演出	-10.7365
▁medical	-10.7365
▁direct	-10.7366
进攻	-10.7366
忽	-10.7367
行业的	-10.7367
▁rates	-10.7368
董	-10.7368
不久	-10.737
委员	-10.7372
试图	-10.7379
但我	-10.7382
聊天	-10.7383
证据	-10.7387
亲自	-10.7387
饮	-10.7387
氧化	-10.7388
關	-10.7389
▁input	-10.7389
滿	-10.7394
扶	-10.7395
公众	-10.7395
声明	-10.7397
几年	-10.7398
坚决	-10.7399
▁interesting	-10.74
难度	-10.74
桶	-10.74
缩	-10.7403
前后	-10.7407
坚定	-10.7409
鹏	-10.741
传统的	-10.7412
系统的	-10.7413
同时也	-10.7417
单独	-10.7421
▁collection	-10.7424
刊	-10.7424
post	-10.7425
形成了	-10.743
那时	-10.7431
▁guide	-10.7432
format	-10.7434
▁loved	-10.7436
▁tools	-10.7438
▁activities	-10.7439
西安	-10.7439
庙	-10.7439
欠	-10.7441
▁leading	-10.7442
框	-10.7442
触	-10.7447
win	-10.7447
上网	-10.7448
复合	-10.7456
▁download	-10.7458
lu	-10.7459
出血	-10.7459
爽	-10.746
▁followed	-10.746
呆	-10.746
一看	-10.7465
愈	-10.7468
舟	-10.7468
mer	-10.7469
访	-10.7469
统	-10.7472
"]	-10.7475
强烈	-10.7478
超越	-10.7483
生意	-10.7484
恋	-10.7486
透露	-10.7486
▁gets	-10.7487
izing	-10.7488
足够	-10.7494
create	-10.7495
▁Even	-10.7496
▁plans	-10.7498
过于	-10.7499
俱	-10.7499
之处	-10.75
飛	-10.75
各级	-10.7501
ability	-10.7502
每一	-10.7503
ml	-10.7504
新型	-10.7506
▁display	-10.7506
北京市	-10.7507
予以	-10.7508
CT	-10.751
男女	-10.7512
二人	-10.7513
外国	-10.7514
現	-10.7514
深刻	-10.7516
Add	-10.7516
档案	-10.7518
都很	-10.7518
仰	-10.7523
逐	-10.7524
▁star	-10.7525
原始	-10.7526
反馈	-10.7529
腔	-10.7531
ti	-10.7532
跟我	-10.7532
工程师	-10.7535
尺	-10.7535
仅仅	-10.7536
有助于	-10.7536
的形式	-10.7538
load	-10.7538
住宅	-10.7541
驾驶	-10.7541
对待	-10.7544
不喜欢	-10.7547
予	-10.755
▁▁▁▁▁▁▁▁	-10.755
了吧	-10.7554
他也	-10.7554
社交	-10.7554
○	-10.7555
身份证	-10.7559
▁costs	-10.7559
我们可以	-10.756
无限	-10.7561
▁stress	-10.7564
大数据	-10.7564
大脑	-10.7564
：《	-10.7566
各自	-10.757
的表现	-10.7571
地下	-10.7571
一部	-10.7572
韵	-10.7573
愁	-10.7573
▁machine	-10.7574
同事	-10.7575
胆	-10.7575
南方	-10.7576
IN	-10.7576
事物	-10.7581
搬	-10.7582
将在	-10.7584
网页	-10.7588
丸	-10.7591
当你	-10.7592
True	-10.7593
MP	-10.7595
的核心	-10.7596
也不能	-10.7598
ium	-10.7599
早就	-10.7601
Time	-10.7604
突	-10.7605
錢	-10.7607
比较好	-10.7607
优先	-10.7608
▁casino	-10.7613
烈	-10.7613
light	-10.7615
祝	-10.7618
闪	-10.7623
专题	-10.7626
的学生	-10.7627
主人	-10.7629
雲	-10.763
福利	-10.7633
门口	-10.7638
摇	-10.7642
瓜	-10.7644
的心	-10.7647
损害	-10.7647
▁finally	-10.7649
悲	-10.7651
▁index	-10.7652
你说	-10.7653
影片	-10.7656
▁traditional	-10.7657
情况下	-10.7657
▁advice	-10.7658
大量的	-10.766
通用	-10.766
态	-10.766
不多	-10.7664
▁print	-10.7665
坡	-10.7665
Not	-10.7667
京东	-10.7667
对外	-10.767
que	-10.7671
LE	-10.7671
▁changed	-10.7672
ins	-10.7675
▁platform	-10.7675
饰	-10.7676
一半	-10.7677
很有	-10.7678
适用	-10.7682
[]	-10.7687
▁High	-10.7687
发育	-10.7688
堡	-10.7688
墓	-10.7691
鐵	-10.7693
主张	-10.7694
画面	-10.7695
一本	-10.7699
本书	-10.7701
众人	-10.7703
过的	-10.7708
ja	-10.7708
摊	-10.7712
▁easier	-10.7714
印刷	-10.7721
fa	-10.7722
瞬间	-10.7723
夫妻	-10.7723
調	-10.7723
涛	-10.7725
①	-10.7725
就可以了	-10.7727
▁cross	-10.7727
凝	-10.7729
▁plant	-10.7731
▁client	-10.7732
▁sweet	-10.7733
骗	-10.7733
正确的	-10.7735
▁physical	-10.7735
移民	-10.7737
民间	-10.7737
我家	-10.774
住了	-10.774
来讲	-10.775
危	-10.775
在他	-10.7751
ator	-10.7751
以上的	-10.7751
潘	-10.7752
Of	-10.7754
东北	-10.7756
截	-10.7758
button	-10.776
餐饮	-10.7763
▁economic	-10.7763
ite	-10.7764
册	-10.7764
会出现	-10.7765
▁cash	-10.7766
▁Center	-10.7767
津	-10.7767
正如	-10.7768
Yes	-10.7768
鼎	-10.7769
▁performed	-10.7771
▁agree	-10.7772
▁London	-10.7775
▁internet	-10.7776
殺	-10.7778
date	-10.778
▁son	-10.7782
ING	-10.7783
碗	-10.7783
va	-10.7786
▁ten	-10.7787
act	-10.7787
▁sort	-10.7788
合成	-10.7789
在那里	-10.7791
更大	-10.7795
組	-10.7798
這樣	-10.78
宿	-10.7801
夏天	-10.7803
②	-10.7803
▁Best	-10.7803
磁	-10.7804
加以	-10.7805
孩子的	-10.7805
恐怕	-10.7807
转换	-10.781
烂	-10.781
内的	-10.7814
三十	-10.7816
Read	-10.782
陳	-10.782
对我	-10.7822
转型	-10.7822
pre	-10.7824
随便	-10.7828
是要	-10.7829
忘	-10.7829
▁output	-10.783
不上	-10.7831
的功能	-10.7832
依旧	-10.7835
万辆	-10.7836
男孩	-10.784
让她	-10.7841
醉	-10.7842
呵呵	-10.7843
page	-10.7844
委托	-10.7845
ations	-10.7846
!"	-10.7848
▁perform	-10.7851
▁fully	-10.7853
最为	-10.786
岭	-10.7861
那边	-10.7862
酷	-10.7865
不锈钢	-10.7868
我认为	-10.7873
▁handle	-10.7873
带动	-10.7878
团体	-10.7878
加热	-10.788
han	-10.7882
今后	-10.7885
TA	-10.7886
策划	-10.7891
烤	-10.7893
为此	-10.7894
以便	-10.7895
▁Ma	-10.7896
▁systems	-10.7898
厉害	-10.7898
走进	-10.7899
ud	-10.7899
实现了	-10.7899
烦	-10.7905
特定	-10.7905
▁然后	-10.7908
你会	-10.7909
挡	-10.7909
▁correct	-10.7909
疫情防控	-10.791
king	-10.791
钻	-10.7911
泛	-10.7912
援	-10.7912
秩序	-10.7912
犬	-10.7917
▁tree	-10.7919
▁apply	-10.7921
获得了	-10.7922
发动机	-10.7925
▁gone	-10.7926
化的	-10.7926
整改	-10.7927
审批	-10.7928
▁factors	-10.7928
吃了	-10.7929
▁court	-10.7929
发送	-10.793
用了	-10.7931
▁numbers	-10.7932
▁tool	-10.7935
▁active	-10.7937
ven	-10.7942
交换	-10.7942
樂	-10.7943
悦	-10.7943
蛮	-10.7943
▁gas	-10.7947
这边	-10.7949
想法	-10.795
消毒	-10.7951
名单	-10.7951
nn	-10.7951
▁published	-10.7951
续	-10.7952
Class	-10.7953
一时	-10.7955
租赁	-10.7959
较高	-10.796
凶	-10.7961
ab	-10.7967
卧	-10.797
会上	-10.7977
协助	-10.7977
硬盘	-10.7979
筒	-10.7986
伸	-10.7986
等人	-10.7987
▁immediately	-10.7987
▁min	-10.7988
▁growing	-10.7989
Info	-10.799
專業	-10.7992
▁certainly	-10.7992
冲击	-10.7993
的特点	-10.7994
在一个	-10.7997
▁…	-10.7997
刮	-10.7998
▁distance	-10.7999
集成	-10.8004
没有什么	-10.8008
剪	-10.8009
促	-10.801
▁selection	-10.8016
高达	-10.8016
(),	-10.8017
霸	-10.8022
▁safety	-10.8023
▁seemed	-10.8025
驾	-10.8026
▁shop	-10.8028
绕	-10.803
北方	-10.8031
波动	-10.8032
耗	-10.8033
▁Mac	-10.8037
Co	-10.8039
股东	-10.804
柏	-10.8042
帝国	-10.8043
Model	-10.8044
的关键	-10.8045
假设	-10.8046
雾	-10.8048
▁train	-10.8049
▁beginning	-10.8051
au	-10.8051
▁states	-10.8051
親	-10.8052
短期	-10.8053
探讨	-10.8053
▁bed	-10.8056
帽	-10.8057
美食	-10.806
User	-10.8062
隊	-10.8062
西班牙	-10.8064
lan	-10.8065
臂	-10.8065
▁task	-10.8066
青春	-10.8071
劍	-10.8073
▁excellent	-10.8076
▁wall	-10.8076
栏	-10.8081
▁legal	-10.8083
▁skills	-10.8086
▁complex	-10.8087
lic	-10.8087
减肥	-10.809
接收	-10.8095
ding	-10.8095
妻	-10.8097
兆	-10.8098
隔离	-10.8104
锋	-10.8105
性和	-10.8111
河北	-10.8111
厘米	-10.8112
放松	-10.8113
有机	-10.8114
▁India	-10.8114
倾	-10.8117
义务	-10.8118
鸡蛋	-10.8119
苏联	-10.8122
当初	-10.8127
ring	-10.8128
出现在	-10.8128
水泥	-10.8129
民众	-10.8129
常规	-10.813
Title	-10.8131
▁meeting	-10.8131
疫苗	-10.8135
▁described	-10.8135
▁President	-10.8135
变成了	-10.8136
自动化	-10.8136
CD	-10.8137
▁protect	-10.8137
大于	-10.814
▁Windows	-10.814
榜	-10.8141
爷	-10.8143
党委	-10.8145
冒	-10.8145
活力	-10.8146
ology	-10.8147
培育	-10.8149
環境	-10.8152
util	-10.8152
▁UK	-10.8152
扩展	-10.8153
幅	-10.8154
ase	-10.8157
执法	-10.8158
胖	-10.8165
▁▁▁▁▁▁	-10.8167
背后	-10.8167
▁appear	-10.8169
抑制	-10.8169
ft	-10.8169
Item	-10.8171
yl	-10.8173
拨	-10.8174
激励	-10.8176
pos	-10.8177
丘	-10.8181
分手	-10.8181
囊	-10.8181
杂志	-10.8183
▁reduce	-10.8183
上来	-10.8183
▁definitely	-10.8186
▁allowed	-10.8186
造型	-10.8187
▁dry	-10.8189
退出	-10.8189
司机	-10.8191
想起	-10.8193
▁Will	-10.8195
▁observed	-10.8195
享	-10.8199
什	-10.8199
全力	-10.82
ster	-10.8201
ni	-10.8206
署	-10.8207
邓	-10.8209
债券	-10.8209
open	-10.821
早上	-10.8211
识	-10.8211
转变	-10.8215
▁damage	-10.8219
```	-10.822
打印	-10.8221
▁Are	-10.8222
记住	-10.8223
long	-10.8223
大力	-10.8227
柯	-10.8228
第二个	-10.8231
Path	-10.8232
血管	-10.8232
说是	-10.8234
▁See	-10.8237
▁paid	-10.8237
▁nearly	-10.8239
湖北	-10.8241
缝	-10.8241
选用	-10.8244
盈利	-10.8245
训	-10.8246
我自己	-10.8246
防水	-10.8247
赶紧	-10.8248
高于	-10.8249
谈判	-10.825
型号	-10.8251
一层	-10.8251
like	-10.8253
AL	-10.8254
上市公司	-10.8256
韦	-10.8259
出售	-10.8261
▁March	-10.8261
串	-10.8263
ya	-10.8265
Context	-10.8267
▁kitchen	-10.8267
▁flow	-10.8269
▁weekend	-10.8269
CC	-10.8269
ko	-10.827
▁passed	-10.827
因为他	-10.8272
肾	-10.8272
▁spent	-10.8272
授	-10.8273
▁fear	-10.8275
▁board	-10.8276
ual	-10.8277
数据显示	-10.8284
黑暗	-10.8287
莎	-10.8287
▁limited	-10.829
察	-10.8294
鼠	-10.8294
可以说	-10.8297
▁Ar	-10.8297
专项	-10.8301
復	-10.8302
_{\	-10.8302
▁Free	-10.8303
pm	-10.8307
院校	-10.8308
大大	-10.8308
因为我	-10.8309
▁initial	-10.8309
之上	-10.8319
的思想	-10.8321
龄	-10.8325
酱	-10.8327
用途	-10.8329
職	-10.8329
Don	-10.8331
▁lose	-10.8334
旺	-10.8334
客服	-10.8335
▁Out	-10.8335
du	-10.8336
▁whose	-10.8339
▁delivery	-10.8339
多少钱	-10.8347
類	-10.8347
▁force	-10.8347
▁closed	-10.8348
我不	-10.8351
洲	-10.8352
▁sp	-10.8353
解答	-10.8353
▁met	-10.8354
▁brain	-10.8357
▁bank	-10.8357
争取	-10.8357
▁trust	-10.8358
ible	-10.836
你自己	-10.8361
使用的	-10.8362
搜	-10.8363
一周	-10.8368
塑	-10.8368
▁moved	-10.8369
生活的	-10.8371
逸	-10.8372
也可	-10.8372
经济发展	-10.8373
寫	-10.8373
节点	-10.8374
宅	-10.8374
/*	-10.8377
▁Ha	-10.8378
css	-10.8378
▁Sunday	-10.8378
ide	-10.8379
内心	-10.8386
坚	-10.8388
老婆	-10.8389
外观	-10.8392
▁sports	-10.8393
▁picture	-10.8397
▁useful	-10.8399
宾	-10.84
总部	-10.8401
勾	-10.8403
范围内	-10.8403
罗马	-10.8409
电机	-10.8412
做什么	-10.8419
完了	-10.842
禮	-10.8421
会在	-10.8422
▁girl	-10.8422
▁El	-10.8423
US	-10.8424
ST	-10.8424
是非常	-10.8427
抹	-10.8428
▁[]	-10.8429
私人	-10.843
以免	-10.8431
频	-10.8433
槽	-10.8434
▁species	-10.8435
▁stuff	-10.8436
姑	-10.8438
還有	-10.8443
客人	-10.8448
嫁	-10.8449
▁warm	-10.8452
鸿	-10.8453
深化	-10.8456
层次	-10.8458
很高	-10.8458
亏	-10.8459
empty	-10.8461
让自己	-10.8466
浪费	-10.8466
危害	-10.847
住房	-10.8471
▁Add	-10.8473
世界上	-10.8477
负担	-10.8479
适量	-10.848
粮食	-10.8482
mu	-10.8482
▁sample	-10.8484
想想	-10.8486
▁Bar	-10.8486
弦	-10.8486
穿着	-10.8487
State	-10.8489
▁&&	-10.8491
供应商	-10.8494
青少年	-10.8496
进了	-10.8497
等到	-10.8499
债务	-10.8499
▁although	-10.8501
传递	-10.8502
慧	-10.8502
进展	-10.8503
▁wear	-10.8504
▁instance	-10.8509
▁effort	-10.8512
▁temperature	-10.8513
不愿意	-10.8513
以外	-10.8513
充电	-10.8516
只好	-10.8518
灾	-10.8518
▁beyond	-10.8522
要想	-10.8529
的设计	-10.853
遭遇	-10.8531
在哪里	-10.8534
▁led	-10.8534
印象	-10.8536
阻	-10.8539
学员	-10.854
执	-10.854
纵	-10.8541
团结	-10.8542
强大	-10.8542
正好	-10.8543
距	-10.8544
记载	-10.8545
→	-10.8546
材质	-10.8547
可用	-10.8548
兴奋	-10.8551
单元	-10.8553
不會	-10.8554
有一些	-10.8554
羅	-10.8554
▁▁▁▁▁▁▁	-10.8555
ile	-10.8556
取得了	-10.8557
▁format	-10.8558
▁posts	-10.8571
选项	-10.8572
颗粒	-10.8573
餐厅	-10.8573
知名	-10.8574
休闲	-10.8574
得了	-10.8575
丑	-10.8575
扩张	-10.8576
▁Se	-10.8579
外面	-10.8585
前进	-10.8586
增加了	-10.8586
挑选	-10.859
卓	-10.8593
途径	-10.8594
箭	-10.8595
▁unit	-10.8595
中药	-10.8596
库存	-10.8598
▁setting	-10.8602
加拿大	-10.8603
多数	-10.8603
眼前	-10.8604
进程	-10.8606
費	-10.8616
qui	-10.8617
內容	-10.8618
。」「	-10.8619
是一款	-10.862
要有	-10.862
講	-10.8623
手续	-10.8625
体内	-10.8626
▁Ka	-10.8627
湘	-10.8627
tra	-10.8628
自觉	-10.8629
倒是	-10.863
的作品	-10.8632
映	-10.8634
慢性	-10.8635
录取	-10.8635
▁kept	-10.8638
default	-10.8639
▁purpose	-10.8641
ok	-10.8643
▁student	-10.8645
引领	-10.8648
term	-10.8654
package	-10.8657
对你	-10.8657
▁Why	-10.8658
▁poor	-10.866
得多	-10.866
被人	-10.8661
迹	-10.8661
俱乐部	-10.8661
终端	-10.8663
旋	-10.8664
▁dead	-10.8664
助力	-10.8666
导演	-10.8666
▁【	-10.8668
相似	-10.8668
一级	-10.8669
AR	-10.867
厂商	-10.8672
運	-10.8675
把我	-10.8675
帮我	-10.8675
▁Di	-10.8678
version	-10.868
勢	-10.8685
▁straight	-10.8686
这是一个	-10.8687
惟	-10.8687
一方	-10.8689
很重要	-10.8691
▁families	-10.8693
开关	-10.8697
钙	-10.87
减轻	-10.8701
店铺	-10.8702
扇	-10.8703
埋	-10.8704
添	-10.8706
发放	-10.8708
澳门	-10.8709
message	-10.871
得很	-10.8711
漂亮	-10.8714
车型	-10.8715
▁population	-10.8719
ax	-10.872
uff	-10.872
三星	-10.8722
處理	-10.8723
发生了	-10.8724
ver	-10.8725
▁June	-10.8726
买卖	-10.8726
找不到	-10.8728
聪明	-10.8728
广西	-10.873
了一	-10.8731
SE	-10.8731
▁interested	-10.8735
▁soft	-10.8737
激发	-10.8737
▁properties	-10.8738
年底	-10.8739
少女	-10.8743
罚	-10.8743
▁successful	-10.8745
引入	-10.8746
其他的	-10.8747
偶	-10.875
▁status	-10.875
仿	-10.8756
霞	-10.8756
vis	-10.8758
带领	-10.876
傻	-10.876
释	-10.876
这就	-10.8761
▁Use	-10.8764
壓	-10.8765
回归	-10.8765
忍	-10.8768
▁particularly	-10.8771
丧	-10.8772
验证	-10.8772
down	-10.8773
权威	-10.8773
很大的	-10.8775
生活中	-10.8776
~~	-10.8777
tal	-10.8778
格局	-10.8779
蒋	-10.8783
恐怖	-10.8785
▁album	-10.8792
持有	-10.8792
渣	-10.8794
防护	-10.8797
和他	-10.8799
OS	-10.8799
什么的	-10.8799
▁hotel	-10.88
▁happened	-10.8802
▁larger	-10.8803
讲解	-10.8804
▁journey	-10.8805
▁catch	-10.8806
)$	-10.8807
湾	-10.881
社會	-10.8812
合并	-10.8812
ified	-10.8813
意思	-10.8813
行情	-10.8816
▁coffee	-10.8821
▁middle	-10.8823
▁song	-10.8823
藥	-10.8823
MA	-10.8826
致力于	-10.8827
物资	-10.8828
LED	-10.8828
book	-10.8829
條	-10.8831
赏	-10.8832
▁factor	-10.8833
▁ahead	-10.8835
非法	-10.8835
同学们	-10.8836
收藏	-10.8838
坛	-10.8839
信心	-10.8846
主管	-10.8846
▁international	-10.8847
平方米	-10.8851
认可	-10.8851
棋	-10.8852
▁Apple	-10.8853
高温	-10.8855
血液	-10.8859
block	-10.8864
隨	-10.8864
的价值	-10.8867
账号	-10.8868
增速	-10.8871
径	-10.8872
▁Many	-10.8873
板块	-10.8877
活跃	-10.8878
▁shape	-10.8879
section	-10.8886
生气	-10.8886
較	-10.8887
▁onto	-10.8887
▁bottom	-10.8888
ify	-10.8889
());	-10.8889
▁mode	-10.8892
那么多	-10.8894
▁context	-10.8894
故意	-10.8896
hu	-10.8897
展现	-10.89
▁rules	-10.8901
前景	-10.8903
捷	-10.8903
▁reviews	-10.8904
▁wonderful	-10.8905
▁income	-10.8905
出行	-10.8907
报考	-10.8909
汇报	-10.891
ath	-10.8911
Pro	-10.8912
新鲜	-10.8912
align	-10.8912
动画	-10.8913
公平	-10.8913
牛奶	-10.8919
▁ball	-10.8921
犹	-10.8923
range	-10.8924
▁fill	-10.8925
▁movie	-10.8928
商标	-10.8931
▁determine	-10.8935
协	-10.8936
▁resources	-10.8939
快递	-10.894
之後	-10.8941
發現	-10.8941
cc	-10.8941
▁attack	-10.8946
演讲	-10.8946
▁overall	-10.8947
▁server	-10.8957
势力	-10.8959
▁college	-10.896
行驶	-10.896
关联	-10.8963
CO	-10.8964
▁political	-10.8964
验	-10.8967
地理	-10.897
后者	-10.897
式的	-10.8971
地上	-10.8971
在美国	-10.8972
經濟	-10.8973
▁err	-10.8973
盡	-10.8974
带有	-10.8974
args	-10.8975
▁reasons	-10.898
her	-10.8981
不去	-10.8982
▁shot	-10.8982
自身的	-10.8982
▁presence	-10.8984
路径	-10.8986
中华	-10.8986
排除	-10.8987
云南	-10.8987
▁Po	-10.8989
得以	-10.899
虚拟	-10.899
Un	-10.8992
发病	-10.8992
全世界	-10.8994
▁wedding	-10.8995
带来了	-10.8997
離	-10.9
▁significantly	-10.9003
摄影	-10.9006
MS	-10.9006
第三方	-10.9006
无人	-10.9007
承受	-10.9009
拿出	-10.9009
意识到	-10.9009
的技术	-10.901
大多	-10.9011
dict	-10.9013
聯	-10.9013
我们要	-10.9014
规	-10.9015
▁fish	-10.9017
劫	-10.9019
建造	-10.9019
▁spot	-10.9023
▁greater	-10.9024
线路	-10.9024
电压	-10.9025
当下	-10.9025
总之	-10.9029
free	-10.9033
乡村	-10.9033
美丽	-10.9034
协同	-10.9036
桌	-10.9037
爬	-10.904
我都	-10.904
辣	-10.904
孕	-10.9041
和我	-10.9041
Table	-10.9041
一颗	-10.9043
起到	-10.9044
▁Service	-10.9047
幼儿园	-10.9047
不容易	-10.9048
小型	-10.9049
就这样	-10.905
喂	-10.9051
主流	-10.9052
的就是	-10.9055
▁memory	-10.9058
chi	-10.9058
ze	-10.9059
秘密	-10.9061
唯	-10.9061
配件	-10.9062
▁serve	-10.9062
造成的	-10.9063
给了	-10.9063
▁rich	-10.9065
真的是	-10.9067
While	-10.9068
不在	-10.9068
well	-10.907
番	-10.907
您好	-10.9072
懂得	-10.9072
晴	-10.9076
赐	-10.9077
日至	-10.9079
▁slow	-10.9079
茨	-10.908
了起来	-10.908
▁fans	-10.9081
輕	-10.9082
性质	-10.9083
要么	-10.9083
▁benefit	-10.9085
叫做	-10.9087
vo	-10.9087
的选择	-10.9088
▁Pa	-10.9088
味道	-10.9089
▁July	-10.9089
▁connect	-10.9089
是很	-10.9089
这个时候	-10.9092
每月	-10.9093
割	-10.9093
五十	-10.9094
女朋友	-10.9095
▁earlier	-10.9095
學生	-10.9098
高兴	-10.9098
股权	-10.9099
警方	-10.9099
打电话	-10.9099
股价	-10.91
牺牲	-10.9101
者的	-10.9102
辅	-10.9104
资讯	-10.9105
▁statement	-10.9105
▁traffic	-10.9106
寶	-10.9108
谱	-10.9108
暴力	-10.9109
▁Street	-10.911
柴	-10.9112
▁management	-10.9113
侍	-10.9114
阁	-10.9114
新疆	-10.9116
登陆	-10.9116
歲	-10.9117
▁prior	-10.9119
这也	-10.9119
如果有	-10.9122
说过	-10.9125
AC	-10.9126
爆炸	-10.9129
层面	-10.9133
现代化	-10.9136
員	-10.9136
▁icon	-10.9137
随意	-10.9139
竞赛	-10.914
你看	-10.9142
常见的	-10.9142
▁:=	-10.9142
挤	-10.9146
错了	-10.9148
便利	-10.9155
大幅	-10.9157
采访	-10.9157
▁Christmas	-10.9158
选举	-10.9158
▁perhaps	-10.9159
结论	-10.916
无需	-10.9161
▁maybe	-10.9161
长时间	-10.9165
學習	-10.9166
我和	-10.9166
▁individuals	-10.9172
lt	-10.9174
的状态	-10.9178
font	-10.9178
网址	-10.9178
抵	-10.9178
▁Monday	-10.9179
诗人	-10.9183
不安	-10.9183
茂	-10.9184
▁offering	-10.9184
▁strength	-10.9185
制造业	-10.9185
鹰	-10.9185
消化	-10.9185
医药	-10.9185
牢	-10.9185
判	-10.9186
告诉你	-10.9186
补偿	-10.9188
幸	-10.9189
见面	-10.919
這種	-10.9192
java	-10.9195
▁Twitter	-10.9195
子女	-10.9196
必要	-10.9197
▁install	-10.9197
▁audience	-10.9199
▁toward	-10.9199
▁race	-10.92
▁dream	-10.92
的角度	-10.9202
对他	-10.9207
交给	-10.9208
猎	-10.9208
▁command	-10.9209
老公	-10.9212
▁Hu	-10.9214
领域的	-10.9216
对自己	-10.9218
舞台	-10.922
▁Life	-10.9223
其他人	-10.9223
▁shall	-10.9223
▁Check	-10.9224
ep	-10.9225
大赛	-10.9227
冻	-10.9228
一股	-10.9229
▁wants	-10.923
罢	-10.9231
▁diet	-10.9231
▁rock	-10.9233
借助	-10.9233
校长	-10.9234
通讯	-10.9236
▁talking	-10.9238
途	-10.9239
资质	-10.924
违反	-10.9242
mi	-10.9244
是最	-10.9244
婴儿	-10.9245
扶贫	-10.9246
▁vehicle	-10.925
两位	-10.9252
nt	-10.9254
項目	-10.9255
ten	-10.926
三是	-10.9261
聚焦	-10.9261
▁pool	-10.9262
待遇	-10.9262
剧情	-10.9263
▁score	-10.9263
认知	-10.9264
▁figure	-10.9266
▁education	-10.9267
position	-10.9271
无数	-10.9272
繁	-10.9272
▁package	-10.9273
無法	-10.9274
char	-10.9275
▁materials	-10.9277
▁Sp	-10.9279
四年	-10.9279
发明	-10.9279
双手	-10.9281
运作	-10.9282
▁develop	-10.9288
合适	-10.9289
期限	-10.9291
写的	-10.9291
▁scale	-10.9298
琳	-10.9298
part	-10.9299
轻轻	-10.93
如同	-10.93
高压	-10.9305
▁Great	-10.9307
这时候	-10.9307
稍微	-10.9308
初步	-10.9311
土壤	-10.9314
等于	-10.9314
迈	-10.9315
即便	-10.9317
▁elements	-10.9317
▁influence	-10.9317
有一种	-10.9319
▁thus	-10.932
舒适	-10.9321
▁therefore	-10.9322
男朋友	-10.9325
ji	-10.9325
中华人民共和国	-10.9325
仇	-10.9327
弃	-10.9328
ES	-10.9328
▁stored	-10.9328
▁budget	-10.9328
冬天	-10.9329
渐渐	-10.933
紧急	-10.9331
▁http	-10.9332
ck	-10.9332
={	-10.9332
存在的	-10.9333
其余	-10.9333
Node	-10.9334
client	-10.9337
流通	-10.9339
妹妹	-10.9339
差距	-10.934
▁trans	-10.934
摘	-10.9341
的存在	-10.9344
▁Pre	-10.9347
▁Time	-10.9348
▁sale	-10.9349
藤	-10.9351
一番	-10.9354
召	-10.9354
婆	-10.9356
激	-10.9357
斤	-10.9357
躲	-10.9359
ru	-10.936
贫	-10.9362
一系列	-10.9362
room	-10.9365
焉	-10.9366
鉴定	-10.9367
产生的	-10.9368
这句话	-10.9369
▁seven	-10.9371
可惜	-10.9371
抄	-10.9372
编制	-10.9374
▁wrote	-10.9375
规格	-10.9376
不管是	-10.9377
▁husband	-10.9378
國際	-10.9378
%)	-10.9379
ward	-10.9379
这场	-10.9379
密度	-10.9379
领先	-10.9379
之路	-10.9381
话题	-10.9381
func	-10.9382
后续	-10.9386
ny	-10.9389
周年	-10.9389
黨	-10.9391
趣	-10.9392
▁produce	-10.9396
▁ideal	-10.9397
成功的	-10.9398
旨	-10.9399
诚信	-10.9399
我还	-10.9401
寻求	-10.9402
建成	-10.9404
回忆	-10.9405
树立	-10.9405
公益	-10.9407
出席	-10.941
屈	-10.9411
踏	-10.9412
浆	-10.9413
的原则	-10.9413
card	-10.9414
▁truth	-10.9416
匹配	-10.9416
期货	-10.9417
<!--	-10.9417
当事人	-10.9418
▁gold	-10.9418
EN	-10.9422
法定代表人	-10.9423
▁photos	-10.9423
標	-10.9424
的速度	-10.9427
▁Amazon	-10.9427
并未	-10.943
可靠	-10.9432
保养	-10.9433
开口	-10.9434
▁weather	-10.9434
焊	-10.9434
▁java	-10.9435
These	-10.9436
▁map	-10.9436
Posted	-10.9437
焦虑	-10.944
荷	-10.944
翔	-10.9442
崔	-10.9442
▁Well	-10.9442
▁drop	-10.9443
▁White	-10.9444
廷	-10.9444
税收	-10.9444
order	-10.9447
处置	-10.9447
雖然	-10.9447
Event	-10.9455
砍	-10.9459
手指	-10.9459
▁contains	-10.9459
硅	-10.946
▁providing	-10.9461
不见	-10.9467
了一些	-10.9469
容量	-10.947
聚集	-10.9472
的观点	-10.9472
历史上	-10.9472
的社会	-10.9474
的现象	-10.9475
芯	-10.9476
职务	-10.9477
"><	-10.9478
辦	-10.9479
会导致	-10.9481
point	-10.9485
work	-10.9485
▁aren	-10.9485
功率	-10.9485
ai	-10.9486
信仰	-10.9486
▁speak	-10.9487
的基础	-10.9489
陷入	-10.949
▁shared	-10.9491
粘	-10.9496
污	-10.9496
延长	-10.9497
出的	-10.9497
car	-10.9498
线下	-10.9499
▁planning	-10.95
▁copy	-10.9501
Message	-10.9501
▁Once	-10.9502
一行	-10.9503
▁Lo	-10.9504
能夠	-10.9505
那天	-10.9506
僧	-10.9506
蘭	-10.9509
穴	-10.9509
覆	-10.9509
▁PC	-10.9513
荡	-10.9513
怨	-10.9514
观看	-10.9515
要把	-10.9516
窝	-10.9517
的政治	-10.9517
買	-10.9518
发作	-10.9521
传承	-10.9521
▁taste	-10.9524
low	-10.9527
之人	-10.9531
薛	-10.9532
滤	-10.9537
效益	-10.9538
平常	-10.9538
合格	-10.954
标志	-10.954
ker	-10.954
({	-10.9542
认定	-10.9542
▁negative	-10.9543
gi	-10.9545
万美元	-10.9546
响应	-10.9546
Code	-10.9547
做法	-10.9548
不易	-10.9549
▁businesses	-10.955
传感器	-10.9551
各大	-10.9552
臺	-10.9552
▁finding	-10.9552
订	-10.9553
家居	-10.9555
的钱	-10.9555
太太	-10.9556
询问	-10.9558
▁links	-10.9559
▁background	-10.9559
工作中	-10.956
ui	-10.9562
▁solid	-10.9562
夺	-10.9564
给她	-10.9566
仪器	-10.9569
▁evidence	-10.957
的可能性	-10.957
玩法	-10.9571
是从	-10.9572
如果没有	-10.9573
替代	-10.9573
受伤	-10.9575
人心	-10.9579
葛	-10.9579
艳	-10.958
出版社	-10.9583
▁pan	-10.9583
貨	-10.9583
err	-10.9583
纳入	-10.9587
不成	-10.9588
最初	-10.9595
▁behavior	-10.9597
氛围	-10.9597
▁Up	-10.9598
▁developed	-10.9601
接到	-10.9605
▁Since	-10.9605
好友	-10.9606
CH	-10.9609
▁Ko	-10.961
独特的	-10.9612
▁Saturday	-10.9616
浓度	-10.9616
齿	-10.9616
感冒	-10.9616
市场上	-10.9619
^{	-10.962
播放	-10.962
癫痫	-10.9621
营造	-10.9622
ray	-10.9628
Size	-10.9629
▁const	-10.9629
獎	-10.963
辈	-10.963
离子	-10.9631
▁helping	-10.9633
▁wine	-10.9633
再说	-10.9635
成效	-10.9637
▁glass	-10.9637
村民	-10.9637
明年	-10.964
忌	-10.964
股市	-10.964
za	-10.9642
卒	-10.9643
house	-10.9643
完成了	-10.9644
▁powerful	-10.9644
哀	-10.9646
▁heavy	-10.9646
▁truly	-10.9651
教练	-10.9651
有多	-10.9652
▁distribution	-10.9655
臭	-10.9656
溫	-10.9657
大臣	-10.9658
试点	-10.9658
在家	-10.9659
欣赏	-10.966
买的	-10.966
搭建	-10.966
缺陷	-10.9663
▁decide	-10.9665
留言	-10.9666
简介	-10.9668
标签	-10.9671
和你	-10.9673
eq	-10.9675
赌	-10.9675
▁April	-10.9676
衰	-10.9676
咸	-10.9685
他还	-10.9686
▁lack	-10.9686
课堂	-10.9688
有一	-10.9691
iPhone	-10.9692
▁Android	-10.9695
遵守	-10.9695
走出	-10.9698
研究院	-10.9698
海军	-10.9699
▁*/	-10.97
▁connection	-10.9701
混凝土	-10.9701
恐	-10.9703
赔偿	-10.9705
▁Ga	-10.9707
城区	-10.971
▁Su	-10.9711
感觉到	-10.9711
再加上	-10.9712
新时代	-10.9713
生理	-10.9715
ale	-10.9717
架构	-10.9717
▁Read	-10.9719
踩	-10.972
没人	-10.9722
▁cards	-10.9723
普及	-10.9724
but	-10.9724
不受	-10.9727
▁waiting	-10.9736
四十	-10.9737
博物馆	-10.9739
Image	-10.9739
奈	-10.9739
士兵	-10.974
▁opened	-10.9741
▁comfortable	-10.9745
题目	-10.9745
La	-10.9749
show	-10.975
国产	-10.9751
纪念	-10.9752
▁helped	-10.9754
OK	-10.9757
彩票	-10.9757
▁wild	-10.9757
比如说	-10.9759
▁returned	-10.976
的意义	-10.976
巡	-10.9765
把自己	-10.9765
分散	-10.9766
纪律	-10.9767
更好地	-10.9768
想着	-10.9769
盟	-10.977
体制	-10.977
排放	-10.977
▁mix	-10.977
对应	-10.977
丢	-10.9772
▁winter	-10.9773
忧	-10.9773
给大家	-10.9775
▁trouble	-10.9777
侠	-10.9779
妃	-10.9785
日上午	-10.9786
創	-10.9788
日益	-10.9789
write	-10.9792
▁sugar	-10.9793
董事长	-10.9794
▁respect	-10.9796
ey	-10.9796
巴黎	-10.9797
西北	-10.9798
ren	-10.9801
▁sa	-10.9804
core	-10.9807
慕	-10.9807
超市	-10.9808
透明	-10.9809
缴	-10.981
pp	-10.9813
歌曲	-10.9817
儒	-10.9817
也好	-10.9819
Some	-10.982
▁count	-10.9823
▁remain	-10.9824
福建	-10.9825
抬	-10.9825
丈	-10.9827
猜	-10.9828
▁Mc	-10.9829
▁named	-10.983
非洲	-10.983
丙	-10.9831
▁Star	-10.9832
相当于	-10.9834
当代	-10.9834
日子	-10.9834
常见	-10.9834
发起	-10.9835
CPU	-10.9838
翠	-10.9841
ash	-10.9844
选手	-10.9844
SS	-10.9844
上线	-10.9846
毕	-10.9847
▁serious	-10.9847
西部	-10.9847
酶	-10.9848
机遇	-10.9851
static	-10.9853
函	-10.9855
十八	-10.9856
Are	-10.9856
的消息	-10.9857
有一定的	-10.9857
([	-10.9858
陽	-10.9859
▁campaign	-10.986
据了解	-10.986
是否有	-10.986
崇	-10.9863
){	-10.9864
违法	-10.9867
总经理	-10.9867
立法	-10.9867
don	-10.9869
多久	-10.987
撤	-10.987
了个	-10.9874
active	-10.9874
▁Ta	-10.9874
随机	-10.9875
▁sold	-10.9876
舌	-10.9878
▁evening	-10.9879
这样做	-10.988
雕	-10.988
暨	-10.9881
恋爱	-10.9881
▁goals	-10.9881
▁ad	-10.9883
姬	-10.9883
▁strategy	-10.9883
▁fat	-10.9884
RO	-10.9885
主板	-10.9886
▁wood	-10.9888
你在	-10.9888
有些人	-10.9891
１	-10.9894
欣	-10.9894
灌	-10.9895
hi	-10.9896
忘记	-10.9897
筑	-10.99
一开始	-10.9901
分数	-10.9902
▁height	-10.9902
芬	-10.9903
我看	-10.9906
▁sit	-10.9907
见过	-10.9908
▁August	-10.9909
退休	-10.9911
感动	-10.9912
uck	-10.9912
ung	-10.9917
偶尔	-10.9917
不错的	-10.992
▁devices	-10.9922
诉讼	-10.9922
▁animals	-10.9923
是不	-10.9924
物料	-10.9924
▁Good	-10.9925
汪	-10.9928
统治	-10.9929
遭到	-10.993
安徽	-10.9931
▁List	-10.9932
▁January	-10.9932
旁边	-10.9932
公子	-10.9933
过滤	-10.9933
春节	-10.9935
▁medium	-10.9935
日下午	-10.9936
出現	-10.9937
温暖	-10.9937
Save	-10.9939
省级	-10.994
理财	-10.9943
美好	-10.9944
▁master	-10.9945
被称为	-10.9946
join	-10.9947
大哥	-10.9947
▁os	-10.9947
ned	-10.9948
瘤	-10.9949
石头	-10.9951
▁payment	-10.9952
模板	-10.9952
▁opening	-10.9954
▁Health	-10.9957
外界	-10.9957
的优势	-10.9958
十五	-10.996
初中	-10.996
Check	-10.996
束	-10.996
ki	-10.9961
▁capital	-10.9963
高的	-10.9964
所说的	-10.9965
▁act	-10.9965
的世界	-10.9965
无线	-10.9965
▁previously	-10.9965
Le	-10.9967
与此同时	-10.9969
gar	-10.997
蛋白质	-10.997
营业	-10.9971
乾	-10.9975
結	-10.9976
▁adding	-10.9977
▁pieces	-10.9977
精力	-10.9977
说什么	-10.9977
傅	-10.9977
遣	-10.9978
▁rise	-10.9978
▁understanding	-10.998
初期	-10.9981
許多	-10.9981
只会	-10.9981
▁pop	-10.9983
▁billion	-10.9983
薪	-10.9985
焊接	-10.9986
组件	-10.9994
玉米	-10.9995
各国	-10.9997
Click	-10.9998
▁En	-11
▁storage	-11
的使用	-11.0002
签订	-11.0002
~\	-11.0003
ists	-11.0003
\\	-11.0003
妮	-11.0006
客戶	-11.0008
锡	-11.0008
▁Business	-11.0009
电流	-11.0009
变量	-11.001
缓	-11.001
科目	-11.0011
美容	-11.0011
▁spread	-11.0011
竞	-11.0014
继承	-11.0015
多家	-11.0017
▁Jo	-11.0018
break	-11.0018
给自己	-11.0018
战士	-11.002
彼	-11.0021
絕	-11.0021
阻止	-11.0022
我很	-11.0022
役	-11.0026
義	-11.0026
Con	-11.0027
▁accept	-11.0029
▁exchange	-11.0032
诊	-11.0037
▁covered	-11.0037
赛事	-11.0037
▁Lu	-11.0037
信用卡	-11.0038
med	-11.0039
券	-11.0041
踢	-11.0045
▁discover	-11.0045
的手	-11.0047
NO	-11.0049
向上	-11.0052
颇	-11.0052
妇	-11.0053
不像	-11.0056
荣誉	-11.006
肯定是	-11.0062
ot	-11.0062
istic	-11.0063
▁obtained	-11.0063
PE	-11.0063
▁src	-11.0065
为你	-11.0066
阿尔	-11.0067
副主任	-11.0067
变革	-11.0069
▁cr	-11.0071
职位	-11.0071
孔子	-11.0071
▁holiday	-11.0072
溶	-11.0073
葬	-11.0073
礼物	-11.0075
▁pair	-11.0075
苏州	-11.0078
gg	-11.0078
忘了	-11.0079
西南	-11.0079
▁wouldn	-11.008
▁highest	-11.008
足以	-11.0083
看过	-11.0083
原创	-11.0084
斗争	-11.0086
防御	-11.0087
▁patient	-11.0087
▁reached	-11.009
一篇	-11.0092
激素	-11.0097
凭借	-11.0098
中介	-11.0098
毅	-11.0099
浦	-11.01
資料	-11.0104
仗	-11.0104
▁miles	-11.0105
導	-11.0106
协作	-11.0107
解放	-11.011
▁projects	-11.011
在北京	-11.0111
▁selected	-11.0112
kg	-11.0113
AS	-11.0114
讨	-11.0115
ney	-11.0117
More	-11.0118
提供的	-11.012
DS	-11.0122
融入	-11.0123
傲	-11.0123
黎	-11.0124
果然	-11.0124
▁direction	-11.0124
文本	-11.0127
▁notice	-11.0127
朝廷	-11.0128
人事	-11.0129
重量	-11.0129
哈哈	-11.0129
塘	-11.0129
朝鲜	-11.0131
冬季	-11.0131
▁helpful	-11.0131
小心	-11.0132
▁Internet	-11.0134
的女人	-11.0136
uc	-11.0138
旋转	-11.014
去找	-11.014
介	-11.0142
▁smile	-11.0144
AP	-11.0147
兔	-11.0147
▁Like	-11.0149
ade	-11.0149
姚	-11.0156
的支持	-11.0159
ff	-11.0159
没事	-11.0159
▁achieve	-11.016
景区	-11.0161
一根	-11.0162
不怕	-11.0162
▁salt	-11.0164
──	-11.0164
▁Gu	-11.0164
的第一	-11.0165
網站	-11.0165
談	-11.0167
路上	-11.017
考研	-11.0171
ose	-11.0172
▁parent	-11.0172
正规	-11.0175
十一	-11.0175
激动	-11.0175
担当	-11.0176
▁Red	-11.0178
辐射	-11.0178
▁entry	-11.0179
▁reports	-11.0184
鸭	-11.0185
▁died	-11.0185
掉了	-11.0185
实用	-11.0186
全程	-11.0188
产生了	-11.0192
敲	-11.0192
放下	-11.0193
住在	-11.0196
问题的	-11.0199
法规	-11.0199
▁actual	-11.02
▁Ne	-11.0204
我不知道	-11.0204
氢	-11.0205
平等	-11.0207
轨	-11.0207
▁consent	-11.0208
▁firm	-11.0211
你想	-11.0212
太子	-11.0214
▁transfer	-11.0216
▁iPhone	-11.0216
▁primary	-11.0217
▁placed	-11.0217
▁director	-11.0218
▁finish	-11.0219
人員	-11.0219
▁offered	-11.0219
留学	-11.0219
月经	-11.0221
设计师	-11.0221
▁repair	-11.0222
密切	-11.0223
扯	-11.0224
」。	-11.0224
宠物	-11.0226
对话	-11.0227
ran	-11.0227
竞争力	-11.0229
里面的	-11.023
脏	-11.023
傷	-11.0231
期望	-11.0233
▁Green	-11.0234
為了	-11.0236
▁mass	-11.0236
道理	-11.0237
▁King	-11.024
▁names	-11.024
民生	-11.0241
国内外	-11.0241
目光	-11.0243
▁existing	-11.0243
▁characters	-11.0245
的那种	-11.0246
江西	-11.0246
▁happens	-11.025
照明	-11.025
▁balance	-11.0252
就没有	-11.0252
飞行	-11.0252
百年	-11.0253
还需要	-11.0255
转向	-11.0256
整治	-11.0257
优秀的	-11.0257
領	-11.0258
关节	-11.0259
唇	-11.0263
大學	-11.0263
▁Fig	-11.0263
严重的	-11.0264
未能	-11.0265
情形	-11.027
告知	-11.0271
在我	-11.0273
▁**	-11.0274
帐	-11.0275
check	-11.0275
▁garden	-11.0276
▁loan	-11.0277
娇	-11.028
▁cat	-11.028
手里	-11.028
▁micro	-11.0283
true	-11.0283
是可以	-11.0287
权益	-11.0288
▁Ho	-11.0288
▁estate	-11.0288
▁manage	-11.0289
個人	-11.0291
▁因为	-11.0292
水分	-11.0292
鋼	-11.0295
Go	-11.0296
▁California	-11.0298
健身	-11.0299
此刻	-11.0299
上有	-11.0299
五个	-11.0301
去世	-11.0302
的那个	-11.0302
▁Although	-11.0303
职责	-11.0303
▁French	-11.0303
发言	-11.0304
曝光	-11.0304
镜头	-11.0305
扫描	-11.0307
极其	-11.0308
ane	-11.0309
▁spring	-11.0309
说着	-11.031
▁seeing	-11.0311
极为	-11.0312
的不同	-11.0312
不起	-11.0313
▁extremely	-11.0316
亞	-11.0319
瞧	-11.032
▁maintain	-11.0321
▁Paul	-11.0322
source	-11.0325
商店	-11.0326
養	-11.0328
达成	-11.0328
合理的	-11.0329
▁samples	-11.0332
認為	-11.0333
宿舍	-11.0334
老年人	-11.0334
种子	-11.0335
发布的	-11.0338
业主	-11.034
ery	-11.0342
气候	-11.0343
ever	-11.0344
tt	-11.0344
心态	-11.0345
挥	-11.0346
ens	-11.0347
ick	-11.0349
考虑到	-11.0352
OR	-11.0353
▁sat	-11.0353
▁wind	-11.0354
用药	-11.0356
▁exercise	-11.036
山西	-11.0365
Windows	-11.0367
作为一个	-11.037
object	-11.0371
回报	-11.0371
▁supply	-11.0373
▁East	-11.0373
恐惧	-11.0376
失望	-11.0381
▁properly	-11.0384
只需	-11.0384
必須	-11.0384
影響	-11.0385
实体	-11.0391
是你	-11.0392
▁foot	-11.0395
具体的	-11.0399
起來	-11.0402
商场	-11.0403
研究所	-11.0403
一台	-11.0404
▁continued	-11.0405
▁prepared	-11.0405
毕业生	-11.0409
谨慎	-11.0411
▁advantage	-11.0412
▁->	-11.0413
▁challenge	-11.0416
▁shopping	-11.0419
▁born	-11.0421
耀	-11.0421
神秘	-11.0422
了他	-11.0426
进而	-11.0426
地铁	-11.0429
▁Post	-11.0429
Map	-11.0429
对接	-11.043
▁letter	-11.0431
▁Group	-11.0431
但是我	-11.0431
▁element	-11.0432
的概念	-11.0434
▁classes	-11.0434
第六	-11.0435
驚	-11.0443
节能	-11.0444
燃烧	-11.0446
奋斗	-11.0452
命运	-11.0453
的一部分	-11.0455
［	-11.0456
ble	-11.0462
備	-11.0463
alpha	-11.0464
远程	-11.0464
免疫	-11.0464
遗传	-11.0466
牙齿	-11.0466
▁fashion	-11.0466
康复	-11.0466
▁Du	-11.0467
成交	-11.0467
出门	-11.0468
不愿	-11.0473
$.	-11.0474
__(	-11.0478
struct	-11.0479
注意到	-11.0481
堵	-11.0482
将于	-11.0486
细菌	-11.0486
太大	-11.0489
▁pet	-11.0489
下一步	-11.0489
select	-11.049
这个人	-11.0492
客户端	-11.0493
▁Europe	-11.0493
是中国	-11.0493
都市	-11.0496
status	-11.05
大事	-11.05
▁David	-11.05
是我们	-11.0501
饼	-11.0502
陷	-11.0503
铭	-11.0505
教育部	-11.0505
讲话	-11.0506
找到了	-11.0507
ino	-11.0508
诉	-11.0508
使其	-11.0509
樓	-11.0509
▁October	-11.0513
屬	-11.0516
奇怪	-11.0516
▁biggest	-11.0517
合适的	-11.0517
俩	-11.0517
秘	-11.0518
同比	-11.0519
更大的	-11.052
PM	-11.0521
▁September	-11.0521
的风险	-11.0523
萌	-11.0524
适	-11.0524
夷	-11.0524
培	-11.0525
▁\\	-11.0525
电信	-11.0526
action	-11.0526
▁partner	-11.0526
办事	-11.0526
四大	-11.0527
热点	-11.0527
這是	-11.053
▁learned	-11.0531
的老	-11.0532
的身体	-11.0532
从此	-11.0533
一百	-11.0533
▁battle	-11.0533
苍	-11.0534
▁Web	-11.0535
好看	-11.054
▁daughter	-11.0541
▁plus	-11.0544
感受到	-11.0546
二次	-11.0547
ix	-11.0547
挖掘	-11.0547
都被	-11.0548
▁forget	-11.055
］	-11.055
答应	-11.0551
▁pages	-11.0552
rc	-11.0555
▁buying	-11.0555
▁se	-11.0555
資	-11.0559
mar	-11.056
之内	-11.0563
分别为	-11.0563
▁Love	-11.0564
海南	-11.0564
国家的	-11.0565
砸	-11.0566
种类	-11.0568
▁keeping	-11.0571
跟他	-11.0573
短信	-11.0575
▁generally	-11.0575
我有	-11.0577
一笑	-11.0577
这些人	-11.0578
青岛	-11.0581
lot	-11.0582
▁len	-11.0583
我们就	-11.0584
▁phase	-11.0584
轩	-11.0584
那位	-11.0584
▁doubt	-11.0586
▁mouth	-11.0586
级别	-11.0586
▁respectively	-11.0588
担保	-11.0591
發生	-11.0592
Create	-11.0592
成为了	-11.0592
发生的	-11.0593
盤	-11.0594
嫩	-11.0595
身后	-11.0595
ho	-11.0595
UI	-11.0596
奶奶	-11.0597
where	-11.0599
传说	-11.0601
rd	-11.0601
一会儿	-11.0602
遵循	-11.0603
see	-11.0603
很简单	-11.0608
只需要	-11.0609
损	-11.061
ably	-11.061
乃至	-11.0611
▁announced	-11.0612
在网上	-11.0613
加油	-11.0613
的方向	-11.0615
▁+=	-11.0616
▁load	-11.0616
應該	-11.0616
眼中	-11.0616
▁thoughts	-11.0617
拿着	-11.0618
▁explore	-11.0618
除非	-11.0619
е	-11.062
跟你	-11.062
潜	-11.0622
变形	-11.0625
正面	-11.0626
热门	-11.0626
van	-11.0627
延续	-11.063
<?	-11.0631
到位	-11.0633
送到	-11.0635
根據	-11.0636
不肯	-11.0636
pro	-11.0637
上午	-11.0638
▁settings	-11.0638
](	-11.0641
▁collect	-11.0641
裏	-11.0643
植	-11.0643
中共	-11.0644
师傅	-11.0646
地震	-11.0651
没有人	-11.0655
kin	-11.0656
▁People	-11.0657
第二次	-11.0657
失去了	-11.0658
▁whatever	-11.066
江南	-11.0665
留在	-11.0665
大夫	-11.067
他对	-11.0671
的眼睛	-11.0673
▁bright	-11.0674
▁session	-11.0674
罩	-11.0675
驱	-11.0678
▁camera	-11.0683
弘	-11.0686
▁Fe	-11.0687
▁programs	-11.0689
祖国	-11.0689
肌肤	-11.069
▁tea	-11.0692
建立了	-11.0693
▁bill	-11.0695
发现了	-11.0696
急性	-11.0696
一体化	-11.07
update	-11.0701
花费	-11.0702
▁official	-11.0703
不宜	-11.0705
蜜	-11.0706
▁caused	-11.0709
入口	-11.0711
年来	-11.0711
▁Pi	-11.0715
长江	-11.0718
一般的	-11.0718
弟子	-11.072
惨	-11.072
钢铁	-11.0721
Config	-11.0722
养殖	-11.0722
▁plants	-11.0723
web	-11.0725
代替	-11.0729
晒	-11.073
▁ice	-11.0732
root	-11.0732
得知	-11.0734
认同	-11.0734
按摩	-11.0736
▁smaller	-11.0736
无奈	-11.0738
解读	-11.0739
宠	-11.0739
浏览器	-11.0739
一群	-11.0741
不清楚	-11.0742
会被	-11.0743
▁lots	-11.0748
分解	-11.0749
是对	-11.0749
▁metal	-11.0749
can	-11.0752
传输	-11.0752
▁basis	-11.0752
▁Lake	-11.0753
專	-11.0757
向前	-11.0757
这么多	-11.0758
▁carry	-11.076
▁Air	-11.0761
▁separate	-11.0763
▁president	-11.0764
▁church	-11.0766
达到了	-11.0767
的做法	-11.0767
▁assist	-11.0769
市委	-11.077
相结合	-11.077
++	-11.077
舞蹈	-11.0773
觀	-11.0775
summary	-11.0776
mark	-11.0778
频率	-11.0778
▁visitors	-11.0779
Let	-11.078
eg	-11.078
惹	-11.0785
争议	-11.0785
▁absolutely	-11.0786
若干	-11.0787
一同	-11.0787
天空	-11.0787
沉默	-11.0788
▁layer	-11.0789
据说	-11.0789
液体	-11.079
的游戏	-11.0791
锐	-11.0791
▁listen	-11.0793
年纪	-11.0793
富有	-11.0795
按钮	-11.0795
心脏	-11.0795
旗下	-11.0796
▁volume	-11.0797
▁park	-11.0798
去看	-11.08
target	-11.0801
解析	-11.0802
af	-11.0802
▁meaning	-11.0802
坊	-11.0805
height	-11.0805
▁appropriate	-11.0809
　　	-11.081
▁driving	-11.0811
信息化	-11.0812
发动	-11.0812
▁plenty	-11.0813
不存在	-11.0814
宴	-11.0815
所以我	-11.0815
条例	-11.0816
Web	-11.0816
差别	-11.0817
▁November	-11.0821
报价	-11.0821
人文	-11.0822
参观	-11.0823
葱	-11.0828
▁cook	-11.0829
!!!	-11.083
一度	-11.0833
虾	-11.0834
▁finished	-11.0834
使命	-11.0834
▁equipment	-11.0834
▁mid	-11.0835
ef	-11.0836
病例	-11.0836
▁Each	-11.0838
模具	-11.0838
必须要	-11.084
▁functions	-11.084
节奏	-11.0841
标题	-11.0841
延伸	-11.0842
就把	-11.0843
损坏	-11.0844
一日	-11.085
Controller	-11.085
体重	-11.0851
▁mis	-11.0852
积分	-11.0853
过敏	-11.0854
频繁	-11.0855
的规定	-11.0855
有一天	-11.0855
精彩	-11.0856
每个人	-11.0856
悟	-11.0856
实习	-11.0857
bet	-11.0858
三人	-11.0859
饮料	-11.086
提高了	-11.0867
利息	-11.0869
下列	-11.0872
cn	-11.0872
See	-11.0873
▁leaving	-11.0874
０	-11.0874
枚	-11.0877
比較	-11.0877
精心	-11.0877
祝福	-11.0878
燃	-11.0881
試	-11.0882
为例	-11.0883
地区的	-11.0884
要在	-11.0885
幻	-11.0885
▁menu	-11.0886
▁edge	-11.0891
尸	-11.0893
报警	-11.0894
贫困	-11.0896
▁ch	-11.0897
合法	-11.0897
的時候	-11.0898
百万	-11.09
未来的	-11.09
年初	-11.0901
我市	-11.0901
▁counter	-11.0903
市政府	-11.0903
▁pull	-11.0906
填写	-11.0908
▁Si	-11.0912
月底	-11.0912
投票	-11.0913
ification	-11.0915
護	-11.0915
催	-11.0917
师生	-11.0919
▁z	-11.0923
严肃	-11.0924
付款	-11.0925
玲	-11.0928
般的	-11.0928
BC	-11.0928
解决问题	-11.0929
▁cup	-11.0929
的意见	-11.093
團	-11.0932
卫星	-11.0934
难题	-11.0935
Share	-11.0936
主机	-11.0937
黄色	-11.0939
不禁	-11.094
冒险	-11.0941
抚	-11.0941
不满	-11.0945
阶	-11.0946
阿里	-11.0946
肚子	-11.0947
花园	-11.095
als	-11.0951
如果您	-11.0951
▁/>	-11.0953
▁CD	-11.0953
▁appears	-11.0953
应急	-11.0953
ple	-11.0955
耳朵	-11.0957
电视剧	-11.0957
灵魂	-11.0958
三天	-11.0962
炎症	-11.0963
区分	-11.0963
▁remains	-11.0963
夏季	-11.0965
ita	-11.0967
一定是	-11.0969
时机	-11.0972
江湖	-11.0972
$,	-11.0976
▁teeth	-11.0977
讨厌	-11.0978
▁comfort	-11.0978
提问	-11.0978
▁requires	-11.098
这份	-11.098
你知道	-11.098
斌	-11.0981
▁thanks	-11.0981
▁leaves	-11.0983
之时	-11.0983
▁schedule	-11.0985
两者	-11.0986
▁True	-11.0986
淮	-11.0986
▁investment	-11.0987
开机	-11.0988
图书馆	-11.0988
▁arm	-11.0989
▁row	-11.0989
宮	-11.099
等地	-11.099
热爱	-11.099
转载	-11.0991
fi	-11.0991
▁im	-11.0994
存款	-11.0995
▁random	-11.0995
晕	-11.0998
打破	-11.0999
电子商务	-11.0999
dd	-11.1
▁River	-11.1002
pass	-11.1002
作為	-11.1002
▁ma	-11.1005
展览	-11.1005
St	-11.1005
▁largest	-11.1007
▁beauty	-11.1007
白天	-11.1011
▁Pe	-11.1012
术后	-11.1015
hr	-11.1018
System	-11.1018
鼻子	-11.102
提出的	-11.102
午	-11.1021
▁fa	-11.1024
ious	-11.1025
▁Ben	-11.1028
文艺	-11.1028
十三	-11.1028
注射	-11.1029
▁root	-11.103
▁affect	-11.1031
试试	-11.1035
▁sharing	-11.1037
的各种	-11.1038
Ro	-11.104
患者的	-11.104
赢得	-11.1043
两天	-11.1044
任意	-11.1045
祸	-11.1048
物体	-11.1051
▁updates	-11.1052
▁calls	-11.1053
叹	-11.1054
主力	-11.1056
浸	-11.1057
Client	-11.106
query	-11.1062
ings	-11.1062
贵族	-11.1063
碰到	-11.1066
防范	-11.1067
▁competition	-11.1068
▁organization	-11.1068
贡	-11.1068
跟踪	-11.1069
境内	-11.1069
体检	-11.1069
打了	-11.107
几次	-11.1071
▁rights	-11.1073
娃	-11.1077
的经验	-11.1077
GA	-11.1079
▁database	-11.1081
个性	-11.1083
取代	-11.1085
人在	-11.1086
对着	-11.1086
▁draw	-11.1089
节约	-11.1089
▁vs	-11.1089
▁videos	-11.1089
▁produced	-11.1092
None	-11.1092
电气	-11.1092
也将	-11.1093
▁fixed	-11.1094
房产	-11.1094
bl	-11.1096
▁fan	-11.1097
▁creative	-11.1097
我们将	-11.1101
▁eight	-11.1103
交往	-11.1104
就不会	-11.1105
克服	-11.1105
出台	-11.1105
国民	-11.1106
▁Data	-11.1108
宝贝	-11.1109
约束	-11.111
每个人都	-11.1111
cy	-11.1112
相同的	-11.1113
提取	-11.1113
长的	-11.1114
Enter	-11.1115
还不	-11.1117
ct	-11.1118
EX	-11.1118
Response	-11.1127
克斯	-11.1127
漫	-11.1128
png	-11.1129
怎麼	-11.1129
▁fix	-11.1129
哲	-11.113
▁tour	-11.1132
缺少	-11.1132
CM	-11.1133
response	-11.1136
ec	-11.1138
听了	-11.114
▁cap	-11.1141
手游	-11.1141
▁missing	-11.1141
摄	-11.1141
▁station	-11.1143
▁boy	-11.1144
就行了	-11.1144
的那	-11.1145
▁British	-11.1146
上传	-11.1148
清除	-11.1149
fe	-11.115
功效	-11.1151
▁views	-11.1152
▁degree	-11.1152
▁Their	-11.1153
ea	-11.1154
产业链	-11.1157
▁dinner	-11.1159
的水	-11.1162
为什么要	-11.1162
就开始	-11.1164
First	-11.1164
▁teams	-11.1165
之事	-11.1166
輪	-11.1169
运转	-11.1169
织	-11.1169
采集	-11.1171
舰	-11.1172
ised	-11.1174
▁progress	-11.1175
ds	-11.1176
下方	-11.1176
▁password	-11.1177
大道	-11.1178
他们在	-11.1178
净化	-11.1179
的一切	-11.118
看你	-11.1182
▁experienced	-11.1182
txt	-11.1185
纠纷	-11.1186
▁owner	-11.1192
mg	-11.1192
不算	-11.1193
靜	-11.1193
抛	-11.1193
自从	-11.1194
纽约	-11.1194
▁Science	-11.1195
▁Test	-11.1196
调用	-11.1197
▁James	-11.1197
过多	-11.1197
伙伴	-11.1197
▁interview	-11.1199
安静	-11.1199
細	-11.12
DE	-11.1204
EC	-11.1204
希腊	-11.1205
成人	-11.1206
▁u	-11.1209
平静	-11.121
製	-11.121
▁Over	-11.1211
par	-11.1211
▁December	-11.1212
澳大利亚	-11.1212
▁street	-11.1214
后悔	-11.1214
产能	-11.1216
▁camp	-11.1218
去除	-11.1222
解除	-11.1222
ez	-11.1222
▁older	-11.1222
赛季	-11.1226
Array	-11.1227
▁relevant	-11.1232
▁stream	-11.1232
就好了	-11.1233
陕西	-11.1234
城镇	-11.1234
▁quarter	-11.1235
保温	-11.1236
可爱	-11.1237
▁ship	-11.1238
put	-11.1238
该公司	-11.1239
同样的	-11.1239
的症状	-11.1239
mail	-11.1242
ments	-11.1244
ign	-11.1246
git	-11.1247
鹤	-11.1249
渴望	-11.1253
((	-11.1255
十六	-11.1255
▁Tuesday	-11.1255
巴西	-11.1256
不止	-11.1256
取决于	-11.1257
容器	-11.1264
通报	-11.1264
不对	-11.1265
▁-->	-11.127
的日子	-11.1272
▁Policy	-11.1274
语音	-11.1274
默认	-11.1274
▁critical	-11.1275
ons	-11.1277
治愈	-11.1278
▁reference	-11.1279
納	-11.1281
的标准	-11.1281
sm	-11.1282
▁central	-11.1284
身子	-11.1285
布置	-11.1287
▁defined	-11.1288
领取	-11.129
皇上	-11.1291
生产的	-11.1291
微微	-11.1292
功夫	-11.1292
精英	-11.1294
摘要	-11.1294
③	-11.1296
出于	-11.1297
看上去	-11.1298
公寓	-11.13
乐观	-11.13
梨	-11.13
▁Take	-11.1303
search	-11.1303
千万	-11.1303
▁protection	-11.1306
▁Because	-11.1308
▁pattern	-11.1309
▁ran	-11.1313
捕	-11.1315
有序	-11.1315
贪	-11.1317
漢	-11.1317
AT	-11.1318
处罚	-11.1318
间的	-11.132
▁tests	-11.1321
不高	-11.1322
▁acid	-11.1324
▁haven	-11.1325
劇	-11.1327
you	-11.1327
current	-11.1329
魚	-11.133
依托	-11.1333
▁Ri	-11.1334
▁famous	-11.1335
賽	-11.1337
','	-11.1338
友好	-11.1339
event	-11.134
▁Table	-11.1341
▁Com	-11.1342
帮你	-11.1342
逢	-11.1342
▁ride	-11.1342
▁posted	-11.1343
赋	-11.1344
发射	-11.1348
复杂的	-11.1348
▁col	-11.1349
▁suggest	-11.135
也都	-11.135
不动	-11.1351
CP	-11.1352
相处	-11.1356
▁Big	-11.1357
法治	-11.1357
聘	-11.1358
地板	-11.1358
翁	-11.1359
涂料	-11.1359
可以看到	-11.1361
美术	-11.1363
▁mission	-11.1365
▁club	-11.1365
栋	-11.1367
长沙	-11.1368
煎	-11.1368
ware	-11.1369
潜力	-11.1369
叉	-11.137
文献	-11.1373
的服务	-11.1373
冰箱	-11.1375
的部分	-11.1375
采纳	-11.1378
忍不住	-11.1379
建設	-11.1379
▁scene	-11.1381
▁trees	-11.1381
蜀	-11.1383
这样一个	-11.1384
▁bag	-11.1386
外交	-11.1387
收取	-11.1387
干扰	-11.1388
▁dance	-11.1389
你也	-11.1389
一代	-11.139
篮球	-11.1392
▁press	-11.1398
微笑	-11.1398
Cl	-11.1401
▁document	-11.1404
上课	-11.1404
公司经营范围包括	-11.1406
zo	-11.1408
迟	-11.1409
要去	-11.1412
▁extends	-11.1412
▁driver	-11.1413
好多	-11.1415
▁Texas	-11.1417
▁opt	-11.1417
▁miss	-11.1418
坦	-11.142
獲得	-11.142
▁European	-11.1421
落后	-11.1421
毁	-11.1423
▁recipe	-11.1423
远远	-11.1426
其实是	-11.1427
α	-11.143
▁Ba	-11.1431
▁label	-11.1432
节省	-11.1434
均衡	-11.1435
筋	-11.1435
下滑	-11.1438
隐藏	-11.1439
▁rain	-11.1443
压缩	-11.1443
std	-11.1444
ming	-11.1444
前来	-11.1444
行業	-11.1445
露出	-11.1447
时代的	-11.1448
▁frame	-11.1449
魅力	-11.145
妹	-11.1454
▁gain	-11.1455
亏损	-11.1455
这本书	-11.1457
▁Per	-11.146
防治	-11.1462
得出	-11.1466
昏	-11.1466
身材	-11.1466
lon	-11.1467
▁forms	-11.1468
汽	-11.147
别人的	-11.1471
CA	-11.1471
说我	-11.1473
正义	-11.1473
md	-11.1473
TH	-11.1473
ue	-11.1475
再度	-11.1476
▁bi	-11.1476
主导	-11.1477
之地	-11.1478
抓好	-11.1478
nu	-11.1479
有机会	-11.1479
批发	-11.148
扔	-11.148
开通	-11.1481
▁movement	-11.1482
▁Thursday	-11.1483
SP	-11.1487
之际	-11.1487
fer	-11.1488
欧盟	-11.1492
▁becomes	-11.1494
樹	-11.1497
Element	-11.1499
敷	-11.15
some	-11.1501
▁classic	-11.1502
约定	-11.1504
郁	-11.1507
那时候	-11.1507
稀	-11.1507
的重要性	-11.151
phi	-11.1512
SA	-11.1517
▁drink	-11.1517
暴露	-11.1518
解决了	-11.1518
AD	-11.1519
昨日	-11.152
・	-11.152
诞生	-11.1523
▁military	-11.1524
加重	-11.1525
▁info	-11.1526
对抗	-11.1526
MC	-11.1526
从未	-11.1527
▁determined	-11.1528
RA	-11.153
▁delivered	-11.1531
充分发挥	-11.1532
▁articles	-11.1532
scale	-11.1533
新加坡	-11.1534
姓名	-11.1534
顾问	-11.1536
我去	-11.1536
伪	-11.1537
▁stick	-11.1537
对其	-11.154
弹性	-11.1542
靈	-11.1544
▁limit	-11.1544
Me	-11.1546
計	-11.1546
斩	-11.1546
电动	-11.1547
▁shipping	-11.1549
据悉	-11.155
科学家	-11.155
接待	-11.155
清单	-11.1552
与其	-11.1553
标准化	-11.1557
貴	-11.1559
▁homes	-11.156
一大	-11.1561
cur	-11.1561
о	-11.1563
context	-11.1564
规定的	-11.1564
▁independent	-11.1564
▁Am	-11.1565
极端	-11.1567
Next	-11.1567
▁secure	-11.1567
几种	-11.1567
递	-11.1573
智能化	-11.1574
cha	-11.1577
毫米	-11.1579
的知识	-11.158
块钱	-11.1581
赠	-11.1584
▁gene	-11.1584
所有人	-11.1584
咳嗽	-11.1594
的安全	-11.1596
口碑	-11.1596
经济学	-11.1597
一樣	-11.1597
▁fair	-11.1598
郑州	-11.1598
／	-11.1599
證	-11.1599
长安	-11.1602
恭	-11.1602
興	-11.1602
▁hospital	-11.1604
▁{}	-11.1605
缴纳	-11.1606
少数	-11.1607
▁Cor	-11.1608
vi	-11.1609
公安	-11.161
此事	-11.161
建议你	-11.161
悬	-11.1611
▁parameters	-11.1612
盲	-11.1613
昂	-11.1614
▁res	-11.1614
著名的	-11.1615
GDP	-11.1617
▁herself	-11.1618
春天	-11.1618
▁net	-11.162
▁welcome	-11.1621
mal	-11.1624
课题	-11.1626
到现在	-11.1626
垂直	-11.1627
这条	-11.1627
▁filled	-11.1627
真心	-11.1627
fully	-11.1628
语文	-11.1629
志愿者	-11.163
fig	-11.1633
▁contain	-11.1634
节日	-11.1634
weight	-11.1636
情況	-11.1638
橡胶	-11.1638
舉	-11.1639
▁Indian	-11.164
涌	-11.164
日电	-11.164
指南	-11.164
伐	-11.164
顺序	-11.1642
大气	-11.1644
▁raise	-11.1644
简直	-11.1644
議	-11.1646
投資	-11.1646
等问题	-11.1646
▁watching	-11.1646
Index	-11.1648
跃	-11.1651
完整的	-11.1654
园区	-11.1654
暂	-11.1655
自治区	-11.1656
文档	-11.1657
孤独	-11.1657
不妨	-11.1658
放到	-11.1659
举措	-11.1661
火车	-11.1662
的学习	-11.1664
▁showing	-11.1665
▁Ja	-11.1665
用心	-11.1666
公斤	-11.1666
仓库	-11.1666
▁raised	-11.1668
奴	-11.1669
陶瓷	-11.167
盗	-11.167
我已经	-11.1671
旨在	-11.1673
你們	-11.1675
▁core	-11.1676
doc	-11.1677
▁guess	-11.1677
▁£	-11.1678
然后再	-11.1679
联想	-11.168
给我们	-11.168
工会	-11.1682
▁minute	-11.1683
是怎么	-11.1684
典型	-11.1684
本发明	-11.1685
尝	-11.1685
他又	-11.1686
尽可能	-11.1686
景观	-11.1689
溢	-11.1691
▁aware	-11.1692
Well	-11.1692
find	-11.1694
棚	-11.1695
激烈	-11.1695
厚度	-11.1696
sis	-11.1696
▁friendly	-11.1697
▁column	-11.1697
尹	-11.1698
Just	-11.1701
回头	-11.1701
▁worry	-11.1702
兩個	-11.1702
汝	-11.1703
分开	-11.1704
▁treat	-11.1705
王子	-11.1705
报纸	-11.1706
旭	-11.1706
wood	-11.1708
▁cleaning	-11.1709
指示	-11.1711
tain	-11.1713
▁Find	-11.1716
▁thank	-11.1717
▁profile	-11.1717
一般来说	-11.1717
air	-11.1718
口腔	-11.1718
披	-11.1719
▁thousands	-11.1723
浏览	-11.1725
视为	-11.1726
截止	-11.1727
換	-11.1727
畫	-11.1727
▁Set	-11.1728
ret	-11.1729
sk	-11.1729
樣	-11.1729
▁applied	-11.173
基础设施	-11.1731
结束后	-11.1731
meta	-11.1732
uk	-11.1733
():	-11.1736
異	-11.1737
▁slightly	-11.1737
人格	-11.1738
这项	-11.1739
防控	-11.1739
▁deliver	-11.174
wa	-11.1742
还有一个	-11.1744
作文	-11.1745
預	-11.1745
xml	-11.1746
本土	-11.1746
靠近	-11.1746
ast	-11.1747
志愿	-11.1749
说完	-11.175
头上	-11.1753
顿时	-11.1753
两国	-11.1756
不说	-11.1757
▁proper	-11.1761
弓	-11.1762
±	-11.1764
听见	-11.1764
▁chicken	-11.1764
真相	-11.1766
ik	-11.1767
的地位	-11.1768
早在	-11.1769
统筹	-11.1774
进度	-11.1775
不是很	-11.1776
Color	-11.1777
慈	-11.1777
▁Open	-11.178
）：	-11.1781
电梯	-11.1783
TO	-11.1784
level	-11.1787
糊	-11.1788
醇	-11.1789
备案	-11.1789
的公司	-11.179
的身份	-11.179
奸	-11.1793
多元	-11.1796
▁feed	-11.1797
▁knows	-11.1799
矮	-11.18
▁Ch	-11.18
配备	-11.1803
并将	-11.1804
复习	-11.1805
旅客	-11.1806
才有	-11.1815
表现出	-11.1815
store	-11.1819
▁tend	-11.1822
一辈子	-11.1823
糖尿病	-11.1824
殷	-11.1825
的文章	-11.1826
经费	-11.1826
▁port	-11.1829
广东省	-11.1831
▁fields	-11.1833
变更	-11.1834
▁max	-11.1834
好处	-11.1834
面包	-11.1839
依照	-11.1839
說道	-11.1842
不利	-11.1843
所需	-11.1844
供应链	-11.1845
州市	-11.1845
▁USA	-11.1846
▁killed	-11.1846
▁eating	-11.1851
iv	-11.1852
▁smart	-11.1854
▁border	-11.1855
▁smooth	-11.1857
引用	-11.1857
粥	-11.1858
▁secret	-11.1858
ama	-11.186
▁presented	-11.1861
问我	-11.1864
▁reality	-11.1864
server	-11.1864
▁appeared	-11.1865
日在	-11.1865
DB	-11.1866
eu	-11.1869
合金	-11.1869
▁Press	-11.1872
▁contract	-11.1873
多吃	-11.1874
新能源	-11.1876
壶	-11.1877
一丝	-11.1877
ow	-11.1877
笔记本	-11.1878
▁discuss	-11.1878
浪漫	-11.188
家中	-11.1881
▁served	-11.1881
遭受	-11.1881
大致	-11.1881
姿	-11.1882
最好是	-11.1882
▁　　	-11.1884
ov	-11.1885
摆脱	-11.1887
平稳	-11.1887
▁commercial	-11.1887
▁dogs	-11.1888
▁node	-11.1888
许可	-11.1891
▁England	-11.1891
的质量	-11.1893
模糊	-11.1893
他自己	-11.1896
觉得自己	-11.1897
▁snow	-11.1897
变动	-11.1897
▁Play	-11.1897
渐	-11.1897
精确	-11.1898
要看	-11.1901
吞	-11.1901
▁village	-11.1902
处理器	-11.1904
葉	-11.1907
涵	-11.1907
穿越	-11.1908
▁responsible	-11.1909
??	-11.1909
没办法	-11.1912
唯一的	-11.1912
条款	-11.1913
▁Therefore	-11.1915
着力	-11.1915
vol	-11.1916
当作	-11.1916
因为它	-11.1916
赔	-11.1917
激活	-11.1918
Resource	-11.1918
巩固	-11.1919
是如何	-11.1922
出来了	-11.1923
float	-11.1924
类型的	-11.1926
号码	-11.1927
一口	-11.1928
che	-11.1928
无比	-11.1928
耐心	-11.1929
ada	-11.1929
namespace	-11.193
ek	-11.1932
蒙古	-11.1933
新手	-11.1934
强制	-11.1935
喝酒	-11.1936
就好	-11.1938
蓝色	-11.1938
职能	-11.194
▁none	-11.1943
携带	-11.1944
总额	-11.1944
手法	-11.1947
表情	-11.1947
部件	-11.1947
lf	-11.1948
寿命	-11.1948
lambda	-11.1948
越来越多	-11.195
正常的	-11.195
尴尬	-11.195
愤怒	-11.1952
一遍	-11.1954
▁Washington	-11.1955
Manager	-11.1958
▁sh	-11.1959
新建	-11.1959
大规模	-11.1959
▁mo	-11.196
▁economy	-11.196
楊	-11.1961
▁claim	-11.1964
Google	-11.1965
home	-11.1967
精品	-11.1967
产物	-11.1969
覺	-11.197
Abstract	-11.1972
一般是	-11.1975
graph	-11.1975
幸运	-11.1975
有问题	-11.1976
▁workers	-11.1977
dis	-11.1977
享有	-11.1978
平面	-11.1982
冷却	-11.1982
島	-11.1985
驰	-11.1987
tan	-11.1987
▁Bank	-11.1991
▁Lord	-11.1991
转让	-11.1992
激情	-11.1992
ans	-11.1993
牵	-11.1994
▁returns	-11.1995
主角	-11.1998
▁whom	-11.1998
边缘	-11.1998
▁meant	-11.1999
温柔	-11.2
pr	-11.2002
lang	-11.2003
辅导	-11.2003
中午	-11.2003
玩具	-11.2005
▁Project	-11.2006
手上	-11.2007
center	-11.2007
site	-11.2007
har	-11.2008
新生	-11.201
邮件	-11.2015
储	-11.202
了解到	-11.2021
怎	-11.2026
有必要	-11.2026
弟弟	-11.2028
cal	-11.2029
的儿子	-11.203
蜂	-11.2035
拥	-11.2035
捏	-11.2036
混乱	-11.2038
葡萄	-11.2039
▁fruit	-11.2041
图书	-11.2041
:“	-11.2042
的男人	-11.2045
▁construction	-11.2046
不清	-11.2047
Facebook	-11.2048
安全生产	-11.2048
最早	-11.2048
诸多	-11.2048
▁testing	-11.205
▁generate	-11.205
畅	-11.2051
可以说是	-11.2052
娶	-11.2054
▁Wednesday	-11.2054
ks	-11.2056
▁Canada	-11.2057
sha	-11.2058
產業	-11.2059
▁corner	-11.2059
▁colors	-11.2061
Mo	-11.2061
跪	-11.2062
价值观	-11.2063
▁failed	-11.2063
▁desire	-11.2064
不幸	-11.2066
▁appearance	-11.207
CS	-11.2071
▁cars	-11.2071
皇后	-11.2073
一副	-11.2074
之道	-11.2076
▁privacy	-11.2078
戶	-11.2078
ju	-11.2079
▁changing	-11.208
▁push	-11.208
防疫	-11.2082
斷	-11.2084
空中	-11.2085
押	-11.2085
und	-11.209
日起	-11.209
▁walking	-11.2094
或者说	-11.2095
只见	-11.2095
▁removed	-11.2098
PA	-11.2099
电路	-11.21
骑士	-11.2101
▁regarding	-11.2102
能在	-11.2102
地域	-11.2102
play	-11.2102
时光	-11.2102
后果	-11.2103
▁brother	-11.2103
绳	-11.2103
PP	-11.2104
参加了	-11.2105
寨	-11.211
attr	-11.2111
▁science	-11.2111
method	-11.2112
影视	-11.2113
金钱	-11.2113
约翰	-11.2117
多么	-11.2117
ville	-11.212
▁reduced	-11.2123
薇	-11.2124
ight	-11.2125
plt	-11.2127
論	-11.2127
的角色	-11.2128
传来	-11.2129
▁deals	-11.2131
形状	-11.2131
▁bowl	-11.2134
巢	-11.2137
辛苦	-11.2139
▁stood	-11.2139
推行	-11.2142
安慰	-11.2142
股份有限公司	-11.2142
君子	-11.2144
▁Ni	-11.2144
qq	-11.2145
擊	-11.2147
▁jobs	-11.2147
十大	-11.2149
▁square	-11.215
就被	-11.2151
許	-11.2152
现状	-11.2153
的看法	-11.2154
总理	-11.2155
”；	-11.2155
了不少	-11.2158
选择了	-11.2158
谈话	-11.2158
三种	-11.216
吏	-11.2161
的生命	-11.2161
ants	-11.2161
Or	-11.2162
▁Have	-11.2164
有力	-11.2165
战场	-11.2167
▁Show	-11.2167
▁obtain	-11.2167
ette	-11.2168
filter	-11.2173
step	-11.2174
sy	-11.2177
▁leads	-11.2177
▁mentioned	-11.218
Hi	-11.2183
魔法	-11.2183
AB	-11.2184
干什么	-11.2184
▁guests	-11.2185
▁becoming	-11.2186
集合	-11.2186
一辆	-11.2191
▁II	-11.2192
以此	-11.2193
硕士	-11.2193
不超过	-11.2193
vert	-11.2194
AM	-11.2195
TS	-11.2196
是没有	-11.2197
Result	-11.2197
列表	-11.2198
ME	-11.2198
常用	-11.2198
▁gr	-11.2199
zy	-11.2199
构造	-11.2202
Sign	-11.2203
一切都	-11.2205
曲线	-11.2206
警告	-11.2206
输送	-11.2206
np	-11.2207
mate	-11.2208
ction	-11.2209
光明	-11.2211
BS	-11.2211
如果不	-11.2213
的利益	-11.2213
说到	-11.2216
伦敦	-11.2216
cl	-11.2217
日报	-11.2219
Oh	-11.2221
个小时	-11.2222
贵州	-11.2222
文物	-11.2225
▁Christ	-11.2227
設	-11.2228
长度	-11.223
的空间	-11.2233
必要的	-11.2239
對於	-11.224
讲述	-11.2242
▁Michael	-11.2243
人间	-11.2243
场合	-11.2244
▁Mark	-11.2246
Start	-11.2247
符号	-11.2248
▁selling	-11.2249
升高	-11.2249
匹	-11.2249
疯狂	-11.225
越南	-11.2252
▁Research	-11.2253
扭	-11.2254
有望	-11.2255
Http	-11.2255
等着	-11.2256
抱着	-11.2256
周末	-11.2256
▁flat	-11.2258
ties	-11.2258
春秋	-11.2259
stream	-11.2261
SO	-11.2262
▁schools	-11.2264
其實	-11.2264
▁plot	-11.2267
心理学	-11.2267
src	-11.2267
勿	-11.2268
▁peace	-11.2269
的经济	-11.2269
瑟	-11.227
明显的	-11.2271
只不过	-11.2271
投诉	-11.2272
门店	-11.2273
▁prefer	-11.2276
▁winning	-11.2276
▁coach	-11.2278
的国家	-11.2283
院长	-11.2284
PR	-11.2285
岂	-11.2286
虹	-11.2289
无力	-11.229
不论	-11.229
传达	-11.2291
不断地	-11.2291
老年	-11.2292
储备	-11.2292
租房	-11.2293
可以选择	-11.2294
▁Super	-11.2294
贞	-11.2294
的治疗	-11.2294
的高	-11.2295
卵	-11.2295
缺点	-11.2295
nes	-11.2295
▁novel	-11.2299
勝	-11.23
倾向	-11.2301
了许多	-11.2301
▁differences	-11.2302
價格	-11.2306
个别	-11.2308
趁	-11.2308
啤酒	-11.2309
著作	-11.231
二级	-11.2311
icon	-11.2315
▁manner	-11.2315
靖	-11.2319
：‘	-11.2321
▁fell	-11.2323
全年	-11.2323
一種	-11.2324
地产	-11.2333
协商	-11.2334
咱	-11.2338
Al	-11.2339
ological	-11.2341
盈	-11.2341
▁nor	-11.2341
我校	-11.2342
衛	-11.2343
年以来	-11.2343
▁Thank	-11.2343
做事	-11.2344
漫画	-11.2349
体会	-11.235
控股	-11.235
final	-11.2351
四周	-11.2351
▁Bay	-11.2352
》）	-11.2352
价钱	-11.2352
token	-11.2352
▁maximum	-11.2353
▁restaurant	-11.2353
▁combination	-11.2354
一点点	-11.2355
占据	-11.2355
▁demand	-11.2356
PK	-11.2359
为人	-11.236
公正	-11.236
审判	-11.2361
颗	-11.2366
佛教	-11.2366
舱	-11.2368
做过	-11.2368
对她	-11.2369
透過	-11.237
户外	-11.2372
ctor	-11.2372
摔	-11.2372
MO	-11.2372
引擎	-11.2373
公务员	-11.2375
喜歡	-11.2377
幻想	-11.2378
哪怕	-11.2379
OP	-11.238
扮演	-11.2383
发热	-11.2384
还原	-11.2385
RS	-11.2385
碱	-11.2388
template	-11.2389
之心	-11.239
▁die	-11.2391
▁newsletter	-11.2394
美丽的	-11.2395
闷	-11.2395
艺术家	-11.2395
这不是	-11.2399
▁writer	-11.2399
保健	-11.24
▁meat	-11.24
商人	-11.2401
wi	-11.2401
说法	-11.2403
撑	-11.2403
违	-11.2404
增多	-11.2404
od	-11.2404
的应用	-11.2406
▁International	-11.2407
我没有	-11.2408
▁Thanks	-11.241
知识产权	-11.2411
鉴	-11.2411
▁deposit	-11.2413
真的很	-11.2414
▁Ab	-11.2414
▁flowers	-11.2416
的说法	-11.2416
▁Ex	-11.2416
額	-11.2418
last	-11.2418
lor	-11.2419
▁explain	-11.2419
▁domain	-11.242
淘	-11.2422
SH	-11.2425
便于	-11.2426
孕妇	-11.2427
望着	-11.2427
一次性	-11.2432
mat	-11.2432
上级	-11.2432
不一定	-11.2432
▁($	-11.2435
而且还	-11.2436
同行	-11.2439
抖音	-11.2439
媒	-11.244
美观	-11.2441
诏	-11.2442
谷歌	-11.2443
溶液	-11.2446
▁Real	-11.2449
▁expensive	-11.2451
开拓	-11.2452
袭	-11.2453
小于	-11.2457
蛋糕	-11.2458
单纯	-11.246
世界杯	-11.2461
的压力	-11.2461
取出	-11.2462
遊戲	-11.2463
数字化	-11.2463
旦	-11.2465
他会	-11.2466
不可以	-11.2467
以往	-11.2469
专科	-11.247
防守	-11.2471
影像	-11.2471
▁earn	-11.2472
通风	-11.2473
緊	-11.2475
Thank	-11.2475
外汇	-11.2475
注意事项	-11.2475
▁pictures	-11.2476
▁mental	-11.2476
是真的	-11.2477
cap	-11.248
助理	-11.2481
ris	-11.2481
醋	-11.2482
▁interface	-11.2485
支援	-11.2485
出手	-11.2486
次数	-11.2488
有多少	-11.2488
▁rule	-11.2491
▁identified	-11.2492
率先	-11.2492
▁soul	-11.2492
塑造	-11.2496
女孩子	-11.2497
暗示	-11.25
的专业	-11.2502
第十	-11.2503
ky	-11.2505
明白了	-11.2505
迎接	-11.2505
世界的	-11.2506
盯着	-11.2507
RT	-11.2507
转化	-11.2507
▁except	-11.2508
Ra	-11.2508
昔	-11.251
每周	-11.2511
▁du	-11.2513
tag	-11.2514
▁Department	-11.2519
善于	-11.2519
SM	-11.252
數據	-11.2524
爷爷	-11.2525
賣	-11.2525
如果说	-11.2526
ony	-11.2526
▁animal	-11.2527
我对	-11.2528
▁updated	-11.2529
Content	-11.253
SC	-11.2533
队长	-11.2535
枫	-11.2535
缓慢	-11.2537
到处	-11.2538
年后	-11.2539
進入	-11.2542
的时代	-11.2545
▁otherwise	-11.2545
IL	-11.2546
▁sounds	-11.2547
▁doctor	-11.2548
應用	-11.2549
▁nil	-11.255
▁carried	-11.2551
口服	-11.2552
據	-11.2552
)\	-11.2553
真空	-11.2553
说说	-11.2554
的具体	-11.2554
这里的	-11.2555
▁constant	-11.2562
氮	-11.2562
动漫	-11.2564
▁spending	-11.2564
惊讶	-11.2564
ero	-11.2565
导师	-11.2566
▁category	-11.2568
电器	-11.2569
▁ingredients	-11.257
确诊	-11.257
▁connected	-11.2572
務	-11.2572
陆续	-11.2572
使人	-11.2573
獨	-11.2575
首都	-11.2576
▁river	-11.2577
幅度	-11.2577
某一	-11.2578
为您	-11.2578
最後	-11.2578
▁Wi	-11.2579
▁par	-11.258
原材料	-11.2581
袖	-11.2582
美女	-11.2583
嫌	-11.2583
press	-11.2584
人民政府	-11.2584
名为	-11.2586
▁cur	-11.2589
划分	-11.2593
next	-11.2594
全是	-11.2595
Field	-11.2597
Override	-11.2598
ford	-11.26
进化	-11.26
nav	-11.2601
▁script	-11.2609
宪法	-11.2609
了我	-11.261
▁established	-11.2611
▁football	-11.2615
▁excited	-11.2615
未來	-11.2618
一样的	-11.2619
膏	-11.262
健全	-11.2621
有关部门	-11.2622
厨	-11.2623
▁concept	-11.2623
不仅仅是	-11.2623
而非	-11.2624
▁farm	-11.2625
ear	-11.2627
质疑	-11.2627
module	-11.2627
▁employees	-11.2628
ox	-11.263
標準	-11.2632
ther	-11.2633
sta	-11.2636
▁library	-11.2637
举报	-11.2638
▁seek	-11.2638
棋牌	-11.2638
聖	-11.2639
生动	-11.264
财经	-11.264
那麼	-11.264
▁ratio	-11.2642
社保	-11.2642
的話	-11.2645
组建	-11.2645
毫不	-11.2646
各種	-11.2647
▁arms	-11.2649
做一个	-11.265
腳	-11.2652
坎	-11.2653
我们也	-11.2656
rt	-11.2656
不断的	-11.2659
介绍了	-11.2659
▁empty	-11.2659
？？	-11.266
cat	-11.2663
法官	-11.2665
CL	-11.2666
▁solutions	-11.2666
浴	-11.2667
在我们	-11.2668
饱	-11.2668
防火	-11.267
烦恼	-11.2673
转身	-11.2675
▁equal	-11.2677
▁sight	-11.2677
▁clearly	-11.2678
email	-11.2679
ius	-11.2679
版权	-11.2679
▁apps	-11.2681
杀人	-11.2686
BO	-11.2687
▁Book	-11.2688
▁earth	-11.2688
▁roof	-11.2688
性价比	-11.2689
情节	-11.2689
tin	-11.269
▁Every	-11.2691
▁efforts	-11.2692
场地	-11.2694
就已经	-11.2695
沾	-11.2696
全都	-11.2697
市长	-11.2697
熙	-11.2698
有两个	-11.2698
Button	-11.2701
影响力	-11.2702
生育	-11.2702
否	-11.2702
Page	-11.2704
人民法院	-11.2706
洒	-11.2707
Status	-11.2708
沈阳	-11.2708
的任务	-11.2709
就行	-11.271
的比例	-11.2711
海上	-11.2711
铃	-11.2712
而成	-11.2712
▁Court	-11.2713
ake	-11.2715
▁API	-11.2716
▁stopped	-11.2717
env	-11.2718
▁wonder	-11.2719
▁ID	-11.2721
display	-11.2721
头脑	-11.2723
我相信	-11.2723
▁sources	-11.2723
巷	-11.2725
是多少	-11.2726
質量	-11.2726
无关	-11.2728
更容易	-11.2728
吓	-11.2728
用户的	-11.2729
决赛	-11.273
天使	-11.2731
的脸	-11.2731
▁revealed	-11.2732
II	-11.2735
都知道	-11.2735
sen	-11.2736
眼里	-11.2736
要知道	-11.2742
鑫	-11.2743
NS	-11.2749
▁drug	-11.2751
先进的	-11.2752
哉	-11.2752
▁Dis	-11.2756
VR	-11.2756
▁expert	-11.2758
根本不	-11.276
眼镜	-11.276
单词	-11.276
十九	-11.276
反弹	-11.2761
高速公路	-11.2762
▁manager	-11.2762
▁foreign	-11.2766
辽	-11.2767
which	-11.2767
一个是	-11.2769
救援	-11.2769
主意	-11.277
在国内	-11.2771
▁waste	-11.2773
▁increasing	-11.2776
▁coverage	-11.2776
一一	-11.2779
也被	-11.278
▁engine	-11.2782
▁sitting	-11.2782
促使	-11.2784
运动员	-11.2784
戏剧	-11.2785
組織	-11.2785
柄	-11.2787
擅长	-11.2787
毛泽东	-11.2788
热量	-11.2788
▁measure	-11.2789
狄	-11.2793
紙	-11.2794
出來	-11.2797
▁Inc	-11.2797
到来	-11.2797
▁beach	-11.28
▁France	-11.2801
南北	-11.2801
▁sum	-11.2802
▁cream	-11.2803
动手	-11.2804
繁荣	-11.2805
▁girls	-11.2807
盾	-11.2807
乡镇	-11.2807
革	-11.2809
这一次	-11.2813
考验	-11.2814
走势	-11.2815
际	-11.2815
▁runs	-11.2815
经历了	-11.2816
call	-11.2816
几个月	-11.2819
民警	-11.2821
▁crowd	-11.2822
风机	-11.2823
有许多	-11.2823
cs	-11.2824
▁Jesus	-11.2824
这点	-11.2825
▁Online	-11.2827
▁internal	-11.2828
时的	-11.2828
Date	-11.283
她是	-11.2833
增大	-11.2833
没法	-11.2834
▁follows	-11.2835
Fig	-11.2836
多年的	-11.2839
▁beat	-11.2841
写了	-11.2842
这段	-11.2842
寡	-11.2846
▁description	-11.2846
host	-11.2847
▁injury	-11.2848
芝	-11.2848
ink	-11.2849
Source	-11.285
貌	-11.2851
▁essay	-11.2852
number	-11.2854
挨	-11.2855
区块链	-11.2856
tion	-11.2856
jo	-11.2857
有用	-11.2857
帆	-11.2858
真实的	-11.2858
記	-11.2859
无疑	-11.2861
▁society	-11.2861
允	-11.2866
编码	-11.2871
▁requirements	-11.2871
邮箱	-11.2872
幼儿	-11.2873
农产品	-11.2873
代谢	-11.2874
只要你	-11.2876
普通的	-11.2876
总量	-11.2876
▁Create	-11.288
月初	-11.2881
裙	-11.2883
onic	-11.2886
和她	-11.2886
各方面	-11.2886
邻	-11.2887
联邦	-11.2888
所示	-11.2888
▁websites	-11.2889
爹	-11.2889
较多	-11.289
獲	-11.289
政权	-11.289
star	-11.2891
▁||	-11.2893
▁conversation	-11.2895
header	-11.2896
▁visual	-11.2899
学生的	-11.29
阅	-11.29
▁Click	-11.2901
農	-11.2902
岁月	-11.2902
梯	-11.2904
甩	-11.2905
西藏	-11.2905
si	-11.2906
▁annual	-11.2906
污水	-11.2906
art	-11.2907
武装	-11.2909
Then	-11.291
我可以	-11.2911
cho	-11.2911
qu	-11.2912
▁advance	-11.2912
已经是	-11.2913
交付	-11.2913
▁south	-11.2913
ill	-11.2914
ack	-11.2914
▁Ke	-11.2915
%;	-11.2917
高质量发展	-11.292
False	-11.2924
是他	-11.2926
必定	-11.2926
▁February	-11.2927
许多人	-11.2927
裕	-11.2927
不仅是	-11.2929
你能	-11.293
shape	-11.293
▁Cha	-11.2931
IE	-11.2931
臉	-11.2933
▁channel	-11.2934
▁numerous	-11.2934
that	-11.2934
崩	-11.2936
万个	-11.294
▁survey	-11.2943
无效	-11.2945
match	-11.2947
溜	-11.2947
感兴趣	-11.2949
证实	-11.2951
禅	-11.2953
廠	-11.2953
▁bound	-11.2955
▁Blue	-11.2955
▁Road	-11.2958
卖家	-11.2958
结算	-11.296
params	-11.296
cent	-11.296
电缆	-11.296
”，“	-11.296
气象	-11.2962
开设	-11.2962
▁COVID	-11.2963
而来	-11.2964
封闭	-11.2966
注入	-11.2966
空間	-11.2967
丛	-11.2967
珍惜	-11.2968
▁Ru	-11.297
铸	-11.297
▁cheese	-11.297
msg	-11.2971
工商	-11.2974
最高的	-11.2975
▁completed	-11.2975
的办法	-11.2975
过后	-11.2975
还是要	-11.2975
document	-11.2976
ari	-11.2977
煤炭	-11.2978
ug	-11.2979
当时的	-11.2979
vent	-11.298
泡沫	-11.2981
▁tickets	-11.2981
全新的	-11.2982
开车	-11.2986
▁brown	-11.299
▁Church	-11.299
王朝	-11.299
央行	-11.299
夸	-11.299
▁orders	-11.2991
▁stone	-11.2992
远离	-11.2992
好奇	-11.2995
▁Har	-11.2995
▁trial	-11.2995
▁如果	-11.2995
筹	-11.2995
养老	-11.2996
医师	-11.2997
美的	-11.2997
▁signal	-11.2998
▁paint	-11.3
▁Club	-11.3002
However	-11.3002
可以直接	-11.3002
年间	-11.3004
口味	-11.3004
齊	-11.3007
equation	-11.3007
黏	-11.3007
word	-11.3007
▁Sun	-11.3009
疗法	-11.3009
一身	-11.301
▁treated	-11.3011
巾	-11.3011
TP	-11.3012
rin	-11.3013
nic	-11.3013
吃的	-11.3014
设有	-11.3015
投放	-11.3016
更快	-11.3016
豹	-11.3017
所得	-11.3017
种种	-11.3017
tu	-11.3017
▁Robert	-11.3019
绩效	-11.3021
▁width	-11.3024
复发	-11.3026
▁vision	-11.3026
头部	-11.3027
战胜	-11.3028
用手	-11.3028
▁asking	-11.3029
罢了	-11.3029
人都	-11.303
▁cast	-11.3032
牌子	-11.3033
三次	-11.3034
有趣的	-11.3041
▁Social	-11.3041
HR	-11.3042
Thanks	-11.3044
衡	-11.3047
伍	-11.3047
液压	-11.3048
▁boost	-11.3049
CF	-11.3049
▁milk	-11.3051
▁majority	-11.3052
个百分点	-11.3053
权限	-11.3053
▁colour	-11.3054
▁holding	-11.3055
真理	-11.3055
▁meal	-11.3055
▁windows	-11.3056
篮	-11.3056
饶	-11.3056
凑	-11.3058
Log	-11.3059
館	-11.3059
搜索引擎	-11.306
特朗普	-11.3061
保護	-11.3061
lock	-11.3062
ace	-11.3063
擁有	-11.3064
工作者	-11.3065
设备的	-11.3065
▁Who	-11.3066
▁Tri	-11.3068
底部	-11.3069
MM	-11.3069
情报	-11.3069
刚开始	-11.307
▁century	-11.307
烫	-11.307
mor	-11.3071
SEO	-11.3072
住院	-11.3074
▁Any	-11.3075
屯	-11.3075
交叉	-11.3078
Component	-11.308
▁opportunities	-11.3083
劳动力	-11.3083
特殊的	-11.3086
这两	-11.3086
例子	-11.3086
▁bio	-11.3088
发生在	-11.3088
企业家	-11.3089
鄉	-11.3089
签约	-11.3089
总裁	-11.309
▁contrast	-11.3094
枯	-11.3095
痕	-11.3098
▁resource	-11.3098
承包	-11.31
MI	-11.3102
美国的	-11.3103
▁leader	-11.3106
癌症	-11.3107
▁cooking	-11.3108
Base	-11.3108
法人	-11.3108
has	-11.3108
▁busy	-11.311
維	-11.3111
动员	-11.3112
運動	-11.3112
地區	-11.3113
面上	-11.3113
房价	-11.3114
活着	-11.3115
的心理	-11.3117
但也	-11.3117
ou	-11.3118
▁standing	-11.3118
▁artist	-11.3119
▁Bill	-11.312
nbsp	-11.312
不含	-11.3121
▁loop	-11.3122
悉	-11.3123
腺	-11.3124
su	-11.3125
▁despite	-11.3126
▁DNA	-11.3127
Br	-11.3127
已被	-11.3128
覺得	-11.313
户口	-11.313
老百姓	-11.313
身高	-11.3131
Most	-11.3132
学校的	-11.3132
▁hurt	-11.3133
介紹	-11.3133
▁replace	-11.3133
vers	-11.3135
美好的	-11.3135
CE	-11.3137
Count	-11.3142
▁caught	-11.3143
▁identify	-11.3143
▁debt	-11.3144
▁variable	-11.3144
才可以	-11.3148
……」	-11.3148
分泌	-11.315
▁soil	-11.315
长大	-11.315
本质	-11.3151
▁breath	-11.3152
拍照	-11.3153
舒服	-11.3153
裤	-11.3154
在他的	-11.3155
部长	-11.3155
港口	-11.3156
▁anywhere	-11.3156
进出口	-11.3157
▁stores	-11.3157
▁owners	-11.3157
妆	-11.3157
不明白	-11.3159
癫痫病	-11.316
琪	-11.3161
科技有限公司	-11.3161
Email	-11.3162
燈	-11.3164
搅拌	-11.3165
▁George	-11.3165
范畴	-11.3166
frame	-11.3167
split	-11.3167
Fi	-11.3168
队员	-11.3169
▁fl	-11.3169
我们会	-11.3171
一笔	-11.3171
了自己的	-11.3171
很快就	-11.3174
对应的	-11.3176
把你	-11.3176
球迷	-11.3177
▁Design	-11.3177
作者是	-11.3178
域名	-11.3181
花钱	-11.3181
Open	-11.3182
与其他	-11.3183
▁sequence	-11.3184
▁Power	-11.3185
有一定	-11.3188
轰	-11.3188
狠	-11.3189
古典	-11.3191
十七	-11.3192
不过是	-11.3193
占有	-11.3194
▁Ti	-11.3196
ene	-11.3197
俄国	-11.3198
出身	-11.3199
杀死	-11.3199
渔	-11.3199
ella	-11.3201
活性	-11.3201
仅有	-11.3201
stone	-11.3202
▁View	-11.3202
要做	-11.3202
零件	-11.3203
▁gun	-11.3203
可在	-11.3203
▁Two	-11.3204
火箭	-11.3204
北部	-11.3205
container	-11.3206
应用程序	-11.3207
Use	-11.3208
品牌的	-11.3209
space	-11.321
多人	-11.3211
▁automatically	-11.3212
弥	-11.3212
obj	-11.3215
不应该	-11.3215
微软	-11.3216
▁launch	-11.3216
不适	-11.3217
▁putting	-11.3217
first	-11.3218
熔	-11.3222
不变	-11.3223
以内	-11.3225
有趣	-11.3226
削	-11.3226
Where	-11.3227
脱离	-11.3228
城乡	-11.3229
auto	-11.3229
ging	-11.3232
▁familiar	-11.3233
▁Art	-11.3237
懒	-11.3241
估值	-11.3241
假期	-11.3243
▁cities	-11.3243
▁alternative	-11.3244
vin	-11.3245
袍	-11.3247
安全性	-11.3247
▁Start	-11.3251
▁Africa	-11.3252
支付宝	-11.3252
这部	-11.3253
高层	-11.3255
▁suit	-11.3256
手动	-11.3258
▁experts	-11.3258
坤	-11.326
出租	-11.3262
▁Bi	-11.3262
省委	-11.3262
cos	-11.3263
昆	-11.3263
厦门	-11.3264
三个月	-11.3264
DA	-11.3265
门槛	-11.3266
资本主义	-11.3268
碑	-11.3268
的区别	-11.3269
▁judge	-11.3269
ach	-11.3269
▁proposed	-11.3269
今天的	-11.3272
創新	-11.3272
此后	-11.3272
条件下	-11.3273
客厅	-11.3274
▁Call	-11.3275
密集	-11.3275
胎儿	-11.3276
▁starts	-11.3277
的通知	-11.3279
▁Dan	-11.328
干预	-11.3283
®	-11.3285
养成	-11.3285
學校	-11.3286
确	-11.3288
商城	-11.3289
亮点	-11.329
辣椒	-11.3292
CEO	-11.3293
的心情	-11.3294
就说	-11.3295
越多	-11.3295
紧密	-11.3295
▁pa	-11.3297
▁topic	-11.3299
株	-11.3299
▁guarantee	-11.3299
公交	-11.3302
background	-11.3303
劑	-11.3304
偶然	-11.3306
xi	-11.3306
▁Food	-11.3306
况	-11.3307
疲劳	-11.3307
▁broken	-11.3311
Str	-11.3313
受到了	-11.3314
▁senior	-11.3314
中国共产党	-11.3314
强烈的	-11.3314
掩	-11.3315
大地	-11.3315
有效地	-11.3318
全民	-11.332
ae	-11.332
卜	-11.332
Step	-11.3321
▁Music	-11.3321
???	-11.3322
手工	-11.3323
谭	-11.3324
学期	-11.3324
荷兰	-11.3324
不斷	-11.3326
的城市	-11.3328
▁bus	-11.3329
課	-11.333
揉	-11.333
▁Sea	-11.3331
▁minimum	-11.3332
南部	-11.3332
仍是	-11.3334
▁Jack	-11.3335
吟	-11.3336
放大	-11.3339
另一种	-11.334
▁delicious	-11.3342
违规	-11.3342
担	-11.3343
DI	-11.3343
▁worse	-11.3344
组成的	-11.3344
评审	-11.3344
編	-11.3345
护士	-11.3345
▁promote	-11.3346
service	-11.3346
上学	-11.3346
您可以	-11.3347
的其他	-11.3347
２	-11.3348
ets	-11.3349
反射	-11.3351
作了	-11.3351
一下子	-11.3354
学位	-11.3354
唉	-11.3356
教室	-11.3356
自杀	-11.3358
▁imp	-11.3359
是用	-11.336
▁continues	-11.336
ram	-11.336
都需要	-11.3361
找个	-11.3361
▁filter	-11.3361
第七	-11.3362
瑶	-11.3362
了下来	-11.3363
蒜	-11.3363
▁lock	-11.3364
Bar	-11.3365
遗憾	-11.3367
占领	-11.3367
精密	-11.3367
蕾	-11.3368
過去	-11.3368
除此之外	-11.3368
集團	-11.3368
书籍	-11.3369
第一时间	-11.3373
宪	-11.3375
收拾	-11.3377
的投资	-11.3378
很小	-11.3379
邑	-11.3379
▁nine	-11.3379
仔	-11.3379
从来没有	-11.3383
二年	-11.3384
看完	-11.3386
附件	-11.3387
▁tough	-11.3388
看不到	-11.3389
产业发展	-11.339
▁capacity	-11.339
中原	-11.339
后台	-11.3393
上门	-11.3393
领导人	-11.3393
▁detail	-11.3393
传媒	-11.3396
金融机构	-11.3396
战术	-11.3399
▁radio	-11.34
说出	-11.34
的文化	-11.3401
▁comparison	-11.3403
園	-11.3403
▁specifically	-11.3404
泰国	-11.3405
已成为	-11.3406
社会的	-11.3408
▁fees	-11.341
你还	-11.3411
还将	-11.3411
▁experiences	-11.3412
陛下	-11.3415
配送	-11.3415
真诚	-11.3417
海关	-11.3419
指令	-11.3419
IS	-11.3419
而又	-11.342
保守	-11.342
繼續	-11.342
禄	-11.3421
的权利	-11.3421
▁walked	-11.3422
建議	-11.3422
用戶	-11.3426
▁containing	-11.3428
停车	-11.3433
▁songs	-11.3433
▁Game	-11.3435
预约	-11.3436
▁typically	-11.344
磷	-11.3441
编程	-11.3441
ET	-11.3442
▁route	-11.3444
朕	-11.3444
Who	-11.3445
方针	-11.3446
人人	-11.3447
模仿	-11.3447
▁Long	-11.3449
补助	-11.3449
口罩	-11.345
▁pot	-11.345
说得	-11.3451
▁confidence	-11.3453
真人	-11.3453
键盘	-11.3453
▁plastic	-11.3454
▁su	-11.3455
eth	-11.3457
是什么意思	-11.3458
Input	-11.3458
适当的	-11.3458
性别	-11.3462
IO	-11.3462
典型的	-11.3463
一手	-11.3465
▁这个	-11.3466
用力	-11.3471
非常的	-11.3471
被动	-11.3472
重组	-11.3472
腐	-11.3474
首先要	-11.3475
parent	-11.3475
▁unless	-11.3475
的责任	-11.3477
入手	-11.3478
首席	-11.3478
潮流	-11.3479
因为他们	-11.3482
担忧	-11.3482
叠	-11.3483
太平	-11.3483
精度	-11.3483
狐	-11.3483
稳定性	-11.3484
▁listed	-11.3484
操作系统	-11.3486
辩	-11.3486
分成	-11.3488
受理	-11.3489
对付	-11.3489
病变	-11.349
但是在	-11.3491
▁failure	-11.3493
乘坐	-11.3493
▁chain	-11.3493
详情	-11.3494
学家	-11.3495
▁enjoyed	-11.3496
切割	-11.3496
在内的	-11.3496
誰	-11.3497
智力	-11.3498
顯示	-11.3499
化妆品	-11.3499
怎么做	-11.3499
的市场	-11.35
'],	-11.35
吵	-11.3505
ld	-11.3507
▁General	-11.3508
瓷	-11.351
愉快	-11.3511
▁possibly	-11.3511
歌手	-11.3512
▁mostly	-11.3515
ident	-11.3515
Group	-11.3516
▁Instagram	-11.3516
era	-11.3517
▁faster	-11.3517
可以看出	-11.3518
营收	-11.3518
谈到	-11.3518
while	-11.3519
▁messages	-11.3519
成型	-11.352
plot	-11.3522
▁readers	-11.3522
劉	-11.3523
显示器	-11.3523
不及	-11.3523
内外	-11.3525
Factory	-11.3525
▁passion	-11.3528
的感情	-11.3528
fit	-11.3532
LO	-11.3533
▁bike	-11.3533
▁attempt	-11.3534
撕	-11.3534
硕	-11.3536
的目光	-11.3536
CI	-11.3539
教堂	-11.354
提起	-11.354
如果我们	-11.3545
Find	-11.3545
惜	-11.3547
熬	-11.3548
▁sets	-11.3548
▁genes	-11.3548
▁register	-11.355
ala	-11.355
大战	-11.3551
▁guys	-11.3552
暮	-11.3554
活动的	-11.3556
▁thick	-11.3558
称之为	-11.3559
抱怨	-11.3559
的环境	-11.3561
个性化	-11.3562
大连	-11.3564
TE	-11.3565
▁prepare	-11.3565
东京	-11.3567
ay	-11.3574
机动车	-11.3574
抵达	-11.3576
az	-11.3579
奉献	-11.358
▁Card	-11.358
LA	-11.3583
谦	-11.3583
▁About	-11.3583
oma	-11.3585
你不	-11.3585
....	-11.3587
制备	-11.3588
邮	-11.359
▁relative	-11.3592
彦	-11.3593
上海市	-11.3594
Token	-11.3595
惊喜	-11.3597
较低	-11.3598
住宿	-11.3599
日成立	-11.3599
▁objects	-11.3601
▁Foundation	-11.3602
}_{	-11.3605
EL	-11.3606
Handler	-11.3606
拒	-11.3607
padding	-11.3608
大声	-11.3609
公式	-11.3614
▁Water	-11.3614
爱心	-11.3615
有钱	-11.3616
sql	-11.3618
lar	-11.3618
国有	-11.3619
导航	-11.3619
资助	-11.362
比特币	-11.3621
找出	-11.3622
但这	-11.3622
特別	-11.3624
san	-11.3626
如有	-11.3628
▁agent	-11.3628
▁butter	-11.3628
▁Florida	-11.363
quot	-11.363
好吧	-11.363
调理	-11.363
万物	-11.3633
涨幅	-11.3634
▁seconds	-11.3639
Builder	-11.364
null	-11.3642
▁Hi	-11.3642
简称	-11.3648
▁leaders	-11.3649
▁mine	-11.3651
銀	-11.3652
抽象	-11.3654
越大	-11.3654
▁During	-11.3656
部落	-11.3657
▁signs	-11.3657
一处	-11.3657
量的	-11.366
▁li	-11.366
▁combined	-11.366
尉	-11.3664
餘	-11.3664
们的	-11.3664
原油	-11.3665
鎮	-11.3665
体积	-11.3666
内涵	-11.3667
好吗	-11.3667
眼泪	-11.3668
过去了	-11.3669
▁shift	-11.367
家电	-11.367
合作伙伴	-11.3671
储存	-11.3671
▁eventually	-11.3672
▁Year	-11.3673
ition	-11.3673
▁teacher	-11.3674
会影响	-11.3675
margin	-11.3676
东部	-11.3679
項	-11.368
'),	-11.368
▁actions	-11.3681
絲	-11.3681
verse	-11.3682
Form	-11.3682
super	-11.3682
一件事	-11.3682
龟	-11.3683
直至	-11.3683
前的	-11.3683
约为	-11.3684
▁em	-11.3685
▁trend	-11.3686
我又	-11.3687
在其	-11.3688
開發	-11.369
经销商	-11.369
▁Rock	-11.3691
勺	-11.3691
披露	-11.3691
看一下	-11.3691
出现的	-11.3693
▁nation	-11.3695
相机	-11.3696
順	-11.3697
原文	-11.3697
▁operation	-11.3697
載	-11.3698
扩散	-11.3698
耕	-11.3699
信托	-11.3699
签证	-11.3699
SD	-11.3699
的照片	-11.37
CR	-11.3701
还得	-11.3701
适宜	-11.3703
两大	-11.3703
berg	-11.3703
ord	-11.3703
看似	-11.3704
的因素	-11.3704
所以说	-11.3706
越高	-11.3706
▁lived	-11.3708
一个小	-11.3711
茅	-11.3712
扶持	-11.3712
充满了	-11.3712
行程	-11.3715
廉	-11.3715
形容	-11.3715
苑	-11.3715
%,	-11.3716
面部	-11.3719
比较多	-11.3719
否定	-11.3722
▁officials	-11.3723
当我	-11.3724
▁mention	-11.3725
司马	-11.3725
可以使用	-11.3725
▁THE	-11.3726
▁Other	-11.3727
然後	-11.3727
潭	-11.3727
▁Law	-11.3728
法定	-11.3728
要用	-11.3728
它们的	-11.3729
编写	-11.3732
别墅	-11.3734
灯光	-11.3735
任何人	-11.3736
形成的	-11.3736
rick	-11.3736
雁	-11.3737
钦	-11.3737
就没	-11.3739
▁Tom	-11.3739
陪伴	-11.3741
好评	-11.3741
疑问	-11.3741
▁Under	-11.3742
境外	-11.3744
ev	-11.3744
外出	-11.3744
就是要	-11.3744
non	-11.3745
上方	-11.3745
慎	-11.3745
作风	-11.3746
脫	-11.3748
裁	-11.3748
钩	-11.375
▁ob	-11.375
BA	-11.375
单一	-11.3751
▁<<	-11.3752
▁kill	-11.3755
痒	-11.3755
手表	-11.3756
萍	-11.3757
▁exciting	-11.3758
建材	-11.3759
IF	-11.3765
爵	-11.3765
▁convert	-11.3767
sec	-11.3767
十四	-11.3767
▁mice	-11.3767
的最大	-11.3767
NAME	-11.3767
admin	-11.3767
sim	-11.3768
▁depending	-11.3769
握	-11.3769
▁generation	-11.3771
▁ring	-11.3771
早晨	-11.3771
狗狗	-11.3772
正当	-11.3775
ory	-11.3775
▁chat	-11.3776
公示	-11.3777
▁feedback	-11.3778
笼	-11.3779
有一次	-11.3783
▁Work	-11.3789
▁Ver	-11.3789
當然	-11.3789
茶叶	-11.379
▁cl	-11.3792
朋友圈	-11.3792
她在	-11.3792
气温	-11.3792
豆腐	-11.3793
▁Live	-11.3794
创立	-11.3795
ib	-11.3796
都说	-11.3796
办学	-11.3798
FC	-11.3799
▁dedicated	-11.38
好不好	-11.38
独特	-11.3803
昆明	-11.3804
千里	-11.3805
減	-11.3806
console	-11.3808
前者	-11.381
▁CO	-11.3811
loss	-11.3812
为自己	-11.3812
台北	-11.3813
参赛	-11.3814
▁lay	-11.3815
▁climate	-11.3815
figure	-11.3816
领袖	-11.3816
'])	-11.3817
▁surprise	-11.3817
Ch	-11.3819
而去	-11.3821
lie	-11.3823
錄	-11.3823
怡	-11.3823
的发生	-11.3824
直径	-11.3824
▁rooms	-11.3826
安裝	-11.3827
中毒	-11.3827
摩擦	-11.3828
小程序	-11.3828
切换	-11.3829
载体	-11.3829
▁calling	-11.3829
收缩	-11.3829
几十	-11.3832
▁entered	-11.3833
困境	-11.3833
▁agreement	-11.3834
招标	-11.3834
hand	-11.3836
筆	-11.3836
轻易	-11.3837
了出来	-11.3838
批判	-11.3838
徽	-11.384
恶心	-11.384
发票	-11.384
很可能	-11.3841
▁serving	-11.3841
均为	-11.3842
脾	-11.3842
幫	-11.3843
★	-11.3844
temp	-11.3844
▁joy	-11.3846
产品质量	-11.3846
spi	-11.385
DC	-11.3851
捧	-11.3852
东南	-11.3853
▁confirmed	-11.3853
ged	-11.3854
▁Note	-11.3855
▁Thus	-11.3855
author	-11.3855
判决	-11.3855
URL	-11.3856
看得	-11.3857
▁boat	-11.3857
伤心	-11.3858
iz	-11.3858
▁Keep	-11.3859
迫	-11.386
子宫	-11.3862
捐	-11.3863
教程	-11.3864
全方位	-11.3866
不堪	-11.3868
▁Ju	-11.3869
cu	-11.387
保险公司	-11.3872
和社会	-11.3873
阶级	-11.3873
亂	-11.3873
了他的	-11.3874
频道	-11.3874
后再	-11.3875
▁transport	-11.3876
').	-11.3877
满了	-11.3877
深受	-11.3877
他认为	-11.3879
交互	-11.388
底下	-11.388
更改	-11.388
顶级	-11.3883
梳理	-11.3884
的品牌	-11.3884
NA	-11.3885
系数	-11.3885
产权	-11.3886
▁exp	-11.3887
▁Mor	-11.3891
▁slot	-11.3891
FF	-11.3891
的努力	-11.3892
一千	-11.3894
的同学	-11.3895
惡	-11.3896
穿过	-11.3896
▁Plus	-11.3896
local	-11.3896
▁Japan	-11.3897
人力	-11.39
广播	-11.3903
所以在	-11.3904
uri	-11.3904
诗歌	-11.3905
风景	-11.3905
希望能	-11.3906
什么都	-11.3906
卸	-11.3906
话说	-11.3906
β	-11.3908
不当	-11.3908
都不会	-11.391
▁sand	-11.391
送给	-11.391
Have	-11.3911
血糖	-11.3912
click	-11.3915
▁brings	-11.3915
这家	-11.3916
外科	-11.3917
▁German	-11.3917
运气	-11.3918
Make	-11.3918
▁ourselves	-11.3918
立体	-11.392
MB	-11.3922
▁hearing	-11.3924
技术的	-11.3926
PT	-11.3927
项目的	-11.3927
类别	-11.3928
渊	-11.3929
▁bought	-11.393
离开了	-11.393
艰难	-11.3931
game	-11.3931
▁ads	-11.3934
在那	-11.3935
▁Peter	-11.3935
几百	-11.3937
蘇	-11.3939
嚴	-11.3942
TV	-11.3943
GE	-11.3944
rk	-11.3945
一个个	-11.3945
▁dress	-11.3946
感知	-11.3949
此类	-11.395
夕	-11.395
▁Australia	-11.395
▁Tu	-11.395
▁foods	-11.3951
脸色	-11.3953
立场	-11.3954
携手	-11.3954
看法	-11.3955
▁rose	-11.3955
因为你	-11.3955
▁fabric	-11.3957
▁leg	-11.3958
▁confirm	-11.3958
快捷	-11.3959
▁Grand	-11.396
组织的	-11.396
ew	-11.3961
优点	-11.3962
气氛	-11.3962
▁lunch	-11.3962
剩下的	-11.3963
這麼	-11.3963
▁sister	-11.3963
▁purposes	-11.3965
长久	-11.3969
惩罚	-11.3969
▁Wa	-11.397
▁▁▁▁▁▁▁▁▁	-11.3971
验收	-11.3971
笔者	-11.3972
▁arrived	-11.3972
就是在	-11.3972
字母	-11.3975
幫助	-11.3977
发酵	-11.3977
酒精	-11.3979
}(	-11.3979
你去	-11.398
lation	-11.3981
的项目	-11.3982
Pre	-11.3983
的活动	-11.3983
▁num	-11.3983
▁tested	-11.3983
态势	-11.3984
既有	-11.3985
两个月	-11.3985
build	-11.3986
安置	-11.3986
mod	-11.3987
持久	-11.3987
hood	-11.3987
楼主	-11.3987
较大的	-11.3988
这儿	-11.3989
cr	-11.399
▁respond	-11.3992
▁Times	-11.3992
TR	-11.3993
狱	-11.3993
▁recommended	-11.3993
ates	-11.3995
咽	-11.3996
管控	-11.3996
▁surrounding	-11.3997
持續	-11.3998
project	-11.3998
是一家	-11.3999
dev	-11.4
国民党	-11.4
▁federal	-11.4001
之意	-11.4001
看好	-11.4001
疗效	-11.4001
聞	-11.4002
放置	-11.4004
▁Top	-11.4004
天才	-11.4004
▁north	-11.4005
济南	-11.4007
ica	-11.4008
白斑	-11.4008
▁reflect	-11.4009
设计的	-11.4009
着急	-11.401
▁afternoon	-11.401
乘客	-11.4011
▁According	-11.4011
▁lo	-11.4012
高铁	-11.4012
伟大的	-11.4013
借款	-11.4014
Up	-11.4016
坏了	-11.4017
牛肉	-11.4018
ado	-11.4019
在你	-11.4019
ob	-11.402
菊	-11.402
▁realize	-11.4021
征收	-11.4021
ibility	-11.4024
纳米	-11.4024
有害	-11.4027
家乡	-11.4027
沿着	-11.4027
▁knowing	-11.4029
▁horse	-11.4033
指的是	-11.4036
生涯	-11.4037
下一个	-11.4042
頂	-11.4043
辉煌	-11.4043
來說	-11.4043
精灵	-11.4044
笑着	-11.4044
绘画	-11.4045
轨道	-11.4045
这才	-11.4048
抵抗	-11.4048
Ma	-11.405
火灾	-11.4051
之前的	-11.4053
▁Pri	-11.4053
上面的	-11.4054
鼠标	-11.4054
即使是	-11.4054
▁wave	-11.4055
▁supported	-11.4057
▁noise	-11.4057
▁generated	-11.4057
▁suggested	-11.4058
已经成为	-11.4058
▁routine	-11.4058
这么说	-11.406
bert	-11.406
Link	-11.4061
inter	-11.4065
采用了	-11.4066
▁managed	-11.4068
秘书	-11.4069
花了	-11.4069
cell	-11.4069
▁exist	-11.4069
▁notes	-11.4072
想知道	-11.4073
主观	-11.4074
一类	-11.4075
▁compare	-11.4075
Bo	-11.4076
导致的	-11.4076
就连	-11.4077
▁iron	-11.4077
Many	-11.4078
研制	-11.4081
糟糕	-11.4082
▁focused	-11.4083
也不知道	-11.4084
小儿	-11.4084
这一切	-11.4087
剩余	-11.4087
两条	-11.4088
或其他	-11.4089
器官	-11.409
便捷	-11.409
吻	-11.4091
天然气	-11.4091
郊	-11.4091
这对	-11.4093
教会	-11.4095
曹操	-11.4096
我没	-11.4098
友谊	-11.41
售后	-11.4101
的管理	-11.4102
▁blend	-11.4102
极大	-11.4103
一首	-11.4104
认识到	-11.4105
▁Ge	-11.4105
貼	-11.4106
艘	-11.4107
深圳市	-11.4108
Tags	-11.4108
▁vote	-11.4111
▁choices	-11.4112
▁opinion	-11.4112
物联网	-11.4113
齐全	-11.4113
hal	-11.4114
▁married	-11.4114
▁parties	-11.4117
▁para	-11.4117
三分	-11.4118
system	-11.412
不已	-11.412
▁express	-11.4121
▁slowly	-11.4123
FA	-11.4124
簡單	-11.4124
痰	-11.4125
美味	-11.4125
商量	-11.4127
dia	-11.4128
stack	-11.4128
崛起	-11.4128
Like	-11.4128
").	-11.4129
經驗	-11.4129
侵	-11.413
▁url	-11.4135
不明	-11.4138
书中	-11.4138
▁valid	-11.414
option	-11.414
留意	-11.4142
原来的	-11.4143
一脸	-11.4144
▁File	-11.4145
▁affected	-11.4149
▁joined	-11.4149
sion	-11.415
%、	-11.415
守护	-11.415
▁College	-11.415
讀	-11.415
▁sc	-11.4151
place	-11.4151
loc	-11.4152
API	-11.4153
马克思主义	-11.4158
做得	-11.4158
實現	-11.4158
安心	-11.4158
分割	-11.4159
书面	-11.4159
神话	-11.4159
ola	-11.4162
ora	-11.4163
剛	-11.4164
大厅	-11.4165
一點	-11.4165
是通过	-11.4165
)]	-11.4166
伤口	-11.4166
▁funds	-11.4167
▁grade	-11.4167
PO	-11.4168
SI	-11.4168
为止	-11.4169
有意	-11.4169
处在	-11.4172
有过	-11.4174
options	-11.4174
▁encourage	-11.4174
▁['	-11.4175
人力资源	-11.4175
排查	-11.4176
是这样	-11.4177
图形	-11.4177
的决定	-11.4178
坠	-11.4179
oke	-11.418
結構	-11.418
桥梁	-11.4181
会让	-11.4182
排列	-11.4185
分工	-11.4186
琼	-11.4186
再生	-11.4186
附近的	-11.4186
车间	-11.4186
save	-11.4187
会对	-11.4188
你怎么	-11.4189
▁centre	-11.4189
Post	-11.4191
auth	-11.4191
圓	-11.4193
信誉	-11.4193
單位	-11.4195
營	-11.4196
評	-11.4196
▁fantastic	-11.4196
▁lu	-11.4197
▁switch	-11.4198
择	-11.4199
▁Media	-11.4199
合约	-11.42
▁Sch	-11.4202
▁faith	-11.4204
竖	-11.4205
▁hidden	-11.4205
▁Da	-11.4205
Property	-11.4207
決定	-11.4208
知乎	-11.4208
▁components	-11.4209
oon	-11.421
到底是	-11.4213
游泳	-11.4213
枕	-11.4214
教训	-11.4214
一流	-11.4215
最新的	-11.4215
▁seat	-11.4216
桌面	-11.4216
对不起	-11.4217
逾	-11.4218
▁Today	-11.422
季节	-11.4222
▁flight	-11.4224
▁Island	-11.4224
我喜欢	-11.4226
虞	-11.4227
招商	-11.4228
人之	-11.4229
DR	-11.423
的用户	-11.423
▁chosen	-11.4232
天子	-11.4233
舆论	-11.4233
UN	-11.4233
▁transition	-11.4233
各部门	-11.4234
▁Yes	-11.4235
贯彻	-11.4235
督	-11.4236
常识	-11.4236
从前	-11.424
▁records	-11.4241
我把	-11.4241
山东省	-11.4242
▁Plan	-11.4242
▁Part	-11.4243
aries	-11.4244
Action	-11.4244
付费	-11.4244
del	-11.4245
▁clinical	-11.4245
王国	-11.4246
▁component	-11.4247
标识	-11.4248
斋	-11.4249
define	-11.4249
人们的	-11.425
的衣服	-11.425
▁cent	-11.425
坝	-11.4251
点的	-11.4252
有人说	-11.4252
脑袋	-11.4253
大门	-11.4253
ern	-11.4254
▁upper	-11.4255
手機	-11.4255
Once	-11.4257
描写	-11.4257
▁Fa	-11.4258
党委书记	-11.4258
冷静	-11.426
檢	-11.426
","	-11.4261
菜单	-11.4262
Box	-11.4262
sign	-11.4264
说服	-11.4264
朋友们	-11.4264
▁pack	-11.4265
净利润	-11.4266
▁teaching	-11.4267
意志	-11.4267
▁applications	-11.4267
笑了	-11.4269
大胆	-11.4271
就是说	-11.4271
就需要	-11.4272
养生	-11.4273
渗透	-11.4273
山区	-11.4274
ON	-11.4275
ura	-11.4276
close	-11.4276
終	-11.4277
董事	-11.4277
參加	-11.4278
▁explained	-11.4278
pl	-11.4278
▁thin	-11.4278
坦克	-11.4281
缩短	-11.4282
心灵	-11.4282
▁Mi	-11.4283
一直是	-11.4283
分别是	-11.4284
體驗	-11.4285
一杯	-11.4285
的患者	-11.4287
more	-11.4287
==	-11.4289
ii	-11.429
哄	-11.429
亚马逊	-11.4291
▁birth	-11.4291
▁ha	-11.4291
窄	-11.4291
▁spirit	-11.4293
中小	-11.4294
发布了	-11.4297
ball	-11.4299
无聊	-11.43
遮	-11.4302
长得	-11.4302
MT	-11.4304
赋予	-11.4304
猴	-11.4305
永久	-11.4305
伟大	-11.4306
纱	-11.4307
Note	-11.4307
并对	-11.4309
图案	-11.4311
扰	-11.4312
▁accident	-11.4312
結果	-11.4313
Search	-11.4313
近代	-11.4315
堪	-11.4317
过去的	-11.4317
▁allowing	-11.4319
轴承	-11.432
生产线	-11.4324
▁sex	-11.4325
▁Beach	-11.4327
related	-11.4327
笔记	-11.4328
中小企业	-11.433
查找	-11.433
遊	-11.4331
補	-11.4331
主要有	-11.4332
水利	-11.4333
甚至是	-11.4333
不舒服	-11.4337
lim	-11.4339
创始人	-11.4342
未经	-11.4343
坚强	-11.4344
专注	-11.4347
讲座	-11.4347
物业	-11.4349
我一直	-11.4349
才知道	-11.4351
是由于	-11.4351
高血压	-11.4352
拾	-11.4353
很久	-11.4354
water	-11.4354
锌	-11.4355
▁hundred	-11.4355
淋	-11.4355
▁answers	-11.4355
▁quiet	-11.4355
▁solve	-11.4356
详细的	-11.4358
完善的	-11.4359
▁Mal	-11.436
iter	-11.436
受益	-11.436
噪音	-11.4361
天赋	-11.4363
aw	-11.4363
uring	-11.4364
▁pulled	-11.4365
雖	-11.4365
当局	-11.4366
▁theme	-11.4367
tz	-11.4368
▁proud	-11.4369
▁fee	-11.4371
▁analyze	-11.4372
control	-11.4372
的政策	-11.4372
▁fuel	-11.4372
体质	-11.4373
当我们	-11.4375
▁Light	-11.4377
▁female	-11.4377
包裹	-11.4377
充足	-11.4378
edit	-11.4378
av	-11.4379
这话	-11.4381
Thread	-11.4382
▁bear	-11.4382
口感	-11.4382
▁exclusive	-11.4383
所需的	-11.4383
侵犯	-11.4383
缸	-11.4385
藝術	-11.4386
ye	-11.4388
新区	-11.4389
網路	-11.4389
由於	-11.4391
样品	-11.4393
▁Microsoft	-11.4393
存在着	-11.4394
els	-11.4395
没错	-11.4397
一体	-11.4399
location	-11.4399
重建	-11.44
决心	-11.4401
▁Smith	-11.4402
吉林	-11.4403
吼	-11.4403
▁artists	-11.4404
改革开放	-11.4404
▁causes	-11.4404
je	-11.4406
▁feels	-11.4406
Mar	-11.4406
▁Program	-11.4406
发电	-11.441
pc	-11.4412
▁~	-11.4412
明明	-11.4413
▁remaining	-11.4414
但却	-11.4415
食材	-11.4416
而后	-11.4416
慈善	-11.4416
原子	-11.4416
给他们	-11.4418
边界	-11.4422
那你	-11.4422
颈	-11.4424
给出	-11.4424
▁roll	-11.4424
庆祝	-11.4425
脆	-11.4426
▁native	-11.4429
▁Whether	-11.4429
下次	-11.443
欢乐	-11.443
题材	-11.443
支部	-11.4431
產生	-11.4431
可怕	-11.4432
▁prove	-11.4432
签署	-11.4433
插入	-11.4434
ily	-11.4435
多元化	-11.4435
要比	-11.4437
改为	-11.4437
的人生	-11.4438
能力和	-11.4438
▁rel	-11.4439
愚	-11.444
前提	-11.4441
我们都	-11.4441
家属	-11.4442
gy	-11.4443
環	-11.4444
關係	-11.4446
▁collected	-11.4447
▁query	-11.4449
▁mail	-11.4449
測	-11.445
▁dumpster	-11.445
commit	-11.4451
▁measures	-11.4452
▁False	-11.4452
▁Hall	-11.4453
回顾	-11.4453
多年来	-11.4454
过渡	-11.4455
生死	-11.4455
拍卖	-11.4457
▁Brown	-11.4457
▁pen	-11.4458
上次	-11.4458
境界	-11.4459
随即	-11.4459
没问题	-11.4461
点头	-11.4464
LS	-11.4464
歪	-11.4465
在上海	-11.4465
▁grown	-11.4465
非常好	-11.4466
▁importance	-11.447
bon	-11.447
▁island	-11.4471
美国人	-11.4472
巫	-11.4472
为之	-11.4472
知道了	-11.4474
完美的	-11.4474
Lo	-11.4475
类似的	-11.4475
帽子	-11.4476
玩游戏	-11.4479
凤凰	-11.4479
▁Comp	-11.448
鲍	-11.4481
▁twice	-11.4482
战役	-11.4483
线索	-11.4485
的商品	-11.4487
不吃	-11.4489
▁bonus	-11.4489
人均	-11.449
军人	-11.449
甲状腺	-11.4491
气质	-11.4492
小时候	-11.4492
▁float	-11.4493
党支部	-11.4494
浙江省	-11.4494
定价	-11.4495
疆	-11.4496
▁plays	-11.4496
▁residents	-11.4497
落在	-11.4498
rem	-11.4498
▁depend	-11.4499
玫瑰	-11.4499
仍在	-11.45
得分	-11.4501
逊	-11.4501
辽宁	-11.4505
logger	-11.4506
血压	-11.4507
準	-11.4509
乳房	-11.4512
▁pepper	-11.4512
▁closer	-11.4513
氯	-11.4515
六年	-11.4516
▁config	-11.4516
小白	-11.4516
钢琴	-11.4516
dic	-11.4517
英寸	-11.4518
▁ended	-11.4518
▁Sam	-11.4519
DOI	-11.452
utils	-11.4521
▁murder	-11.4521
表现为	-11.4522
老大	-11.4523
cast	-11.4523
连锁	-11.4528
▁expressed	-11.4528
麵	-11.4529
迎来	-11.4529
▁challenges	-11.453
详	-11.4532
芽	-11.4532
杀了	-11.4532
帖	-11.4533
起诉	-11.4533
▁exception	-11.4534
贱	-11.4537
婉	-11.4543
▁Care	-11.4543
袭击	-11.4544
▁Watch	-11.4544
线程	-11.4544
▁relatively	-11.4546
ese	-11.4546
导向	-11.4547
最多的	-11.4548
有利	-11.4551
三国	-11.4553
ls	-11.4555
Na	-11.4556
入学	-11.4558
盲目	-11.4559
给人	-11.456
▁rent	-11.4561
▁motion	-11.4561
豪华	-11.4561
拓	-11.4563
一向	-11.4563
把她	-11.4563
▁mom	-11.4564
天生	-11.4565
他把	-11.4566
夫妇	-11.4567
▁charges	-11.4567
庞	-11.4568
TC	-11.4569
钥匙	-11.4569
only	-11.4571
跑到	-11.4573
▁Before	-11.4573
肃	-11.4573
parser	-11.4574
▁discovered	-11.4575
主管部门	-11.4575
product	-11.4577
怎么会	-11.4577
_\	-11.4577
看出	-11.4578
eng	-11.4578
总会	-11.4578
构	-11.4582
超過	-11.4583
▁smoke	-11.4583
队的	-11.4584
我真的	-11.4585
航天	-11.4588
人为	-11.4588
delta	-11.4588
犹豫	-11.4588
纪录	-11.4589
联合国	-11.4589
▁Office	-11.4589
过分	-11.459
▁Em	-11.459
打工	-11.459
小朋友	-11.459
▁chief	-11.4591
▁mixture	-11.4592
的数量	-11.4593
涉嫌	-11.4593
▁techniques	-11.4593
▁stars	-11.4595
▁Gar	-11.4596
埃及	-11.4598
的表情	-11.46
我们是	-11.46
準備	-11.46
匠	-11.4601
事先	-11.4604
十几	-11.4604
▁sides	-11.4604
和发展	-11.4605
朴	-11.4607
▁grand	-11.4608
撰	-11.4609
的理解	-11.461
会产生	-11.461
流动性	-11.4612
和尚	-11.4616
在外	-11.4618
▁Bre	-11.4618
ral	-11.4619
面板	-11.462
就是一个	-11.4623
重启	-11.4624
gu	-11.4626
raise	-11.4626
▁spoke	-11.4629
▁Should	-11.4629
des	-11.463
▁ho	-11.4633
▁paying	-11.4636
讲究	-11.4637
tri	-11.4638
命名	-11.4639
网易	-11.4639
master	-11.464
奇迹	-11.4641
▁purchased	-11.4641
諸	-11.4642
▁recipes	-11.4643
加密	-11.4645
一组	-11.4646
▁reaction	-11.4648
的理论	-11.465
ture	-11.4651
▁trading	-11.4652
婚礼	-11.4653
▁cloud	-11.4654
终身	-11.4654
老子	-11.4656
依次	-11.4657
兮	-11.4657
▁Both	-11.466
▁throw	-11.466
其中的	-11.466
的例子	-11.466
▁char	-11.466
${	-11.4661
书法	-11.4661
▁Only	-11.4664
▁advanced	-11.4665
▁mark	-11.4665
女友	-11.4672
热闹	-11.4672
稅	-11.4674
静脉	-11.4674
洛阳	-11.4677
Default	-11.4677
▁Los	-11.4681
昊	-11.4682
▁introduced	-11.4684
▁kinds	-11.4684
曾在	-11.4684
清醒	-11.4686
▁da	-11.4686
巨头	-11.4688
lum	-11.4688
》：“	-11.4689
▁Next	-11.469
劣	-11.4691
介入	-11.4691
外表	-11.4692
電子	-11.4694
捉	-11.4694
行走	-11.4697
的味道	-11.4698
▁proceed	-11.4698
介质	-11.4698
悔	-11.47
手臂	-11.47
)}	-11.47
来进行	-11.4701
▁tr	-11.4702
廣	-11.4703
自動	-11.4703
我还是	-11.4704
朵	-11.4705
gt	-11.4706
草原	-11.4707
資源	-11.4708
信贷	-11.4709
新人	-11.4711
抵押	-11.4711
aging	-11.4711
▁CA	-11.4712
▁virtual	-11.4712
protected	-11.4713
看到的	-11.4713
忽视	-11.4714
国家级	-11.4715
▁yes	-11.4715
▁clothes	-11.4716
文件夹	-11.4718
Subscribe	-11.4718
区的	-11.4719
times	-11.4719
男友	-11.4721
澳	-11.4723
筛	-11.4723
脾气	-11.4723
问题是	-11.4723
歷史	-11.4724
较高的	-11.4725
这块	-11.4725
廊	-11.4726
伊朗	-11.4727
▁variables	-11.4727
description	-11.4729
新兴	-11.473
税务	-11.473
的最佳	-11.473
決	-11.4731
忽略	-11.4731
碼	-11.4734
▁theory	-11.4734
契	-11.4734
下游	-11.4734
就是这样	-11.4736
被迫	-11.4737
感激	-11.4737
▁guy	-11.4742
江苏省	-11.4743
生命的	-11.4744
婆婆	-11.4745
願	-11.4745
两侧	-11.4746
▁greatest	-11.4746
哼	-11.4747
lk	-11.475
▁Che	-11.4751
走过	-11.4751
舊	-11.4751
沪	-11.4753
mit	-11.4754
▁bringing	-11.4757
▁locations	-11.4758
类的	-11.4759
有的人	-11.476
▁symptoms	-11.4763
自有	-11.4764
tens	-11.4764
arg	-11.4766
▁si	-11.4767
不让	-11.4768
成品	-11.4768
绣	-11.4771
▁enable	-11.4771
阿里巴巴	-11.4772
▁Act	-11.4774
las	-11.4777
▁proteins	-11.4777
推出了	-11.4777
邵	-11.4777
▁sauce	-11.4778
▁remote	-11.4778
▁Mon	-11.4782
▁affiliate	-11.4782
计量	-11.4783
▁tri	-11.4784
的对象	-11.4786
經過	-11.4787
▁define	-11.4787
下面的	-11.4788
и	-11.479
人气	-11.479
会使	-11.479
▁Joe	-11.4791
已经被	-11.4791
▁Gold	-11.4792
欧美	-11.4793
这事	-11.4793
Line	-11.4794
厉	-11.4794
在意	-11.4794
说他	-11.4795
▁indeed	-11.4798
的手机	-11.4799
gram	-11.48
]]	-11.48
棍	-11.4801
▁fellow	-11.4802
患有	-11.4804
可以去	-11.4806
所以我们	-11.4806
According	-11.4807
gs	-11.4808
▁hundreds	-11.4811
▁supposed	-11.4811
能让	-11.4811
▁perspective	-11.4812
▁Company	-11.4812
с	-11.4813
甫	-11.4814
▁aid	-11.4814
攀	-11.4814
去医院	-11.4814
热水	-11.4815
ore	-11.4816
活动中	-11.4816
PL	-11.4817
租金	-11.4818
倒入	-11.4818
ara	-11.4818
▁participants	-11.4819
▁Using	-11.4819
种族	-11.4819
▁Sha	-11.482
稳定的	-11.4821
蓄	-11.4822
ened	-11.4827
▁panel	-11.4829
解決	-11.4829
▁Team	-11.4829
腹部	-11.4831
flow	-11.4833
▁accounts	-11.4834
膝	-11.4834
▁sky	-11.4835
make	-11.4836
主场	-11.4836
Ha	-11.4837
▁communication	-11.4838
生态环境	-11.4838
之所	-11.4838
苯	-11.4839
▁forest	-11.484
各方	-11.4841
土耳其	-11.4841
开门	-11.4842
对照	-11.4843
外地	-11.4843
评选	-11.4844
该如何	-11.4845
▁Dec	-11.4846
生日	-11.4847
奖金	-11.4847
筛选	-11.4849
删	-11.485
又要	-11.4851
环境下	-11.4851
這一	-11.4852
体现了	-11.4854
不准	-11.4855
如图	-11.4855
的形象	-11.4857
直线	-11.4858
▁Jones	-11.4859
▁Chi	-11.4862
▁investigation	-11.4863
燃料	-11.4863
科技创新	-11.4866
省份	-11.4866
Last	-11.4868
▁suitable	-11.4868
▁commission	-11.4868
ians	-11.4868
▁attorney	-11.4871
▁mill	-11.4872
的情绪	-11.4872
TD	-11.4873
Pa	-11.4873
▁Germany	-11.4873
歸	-11.4874
对面	-11.4876
▁experiment	-11.4876
▁tag	-11.4877
注明	-11.4877
▁adult	-11.4877
lat	-11.4877
内地	-11.4878
的颜色	-11.4879
▁就是	-11.488
nut	-11.4881
ston	-11.4882
rot	-11.4882
你有	-11.4883
你觉得	-11.4883
所属	-11.4886
iving	-11.4887
仕	-11.4888
收录	-11.4892
▁Mrs	-11.4892
▁tab	-11.4898
里有	-11.4898
辨	-11.4898
困扰	-11.4899
border	-11.49
的爱	-11.49
破碎	-11.4901
Vi	-11.4904
▁Win	-11.4905
就知道	-11.4905
比起	-11.4909
拿下	-11.4909
的那些	-11.4911
使他	-11.4913
蜂蜜	-11.4915
要点	-11.4917
ele	-11.4918
鞭	-11.4918
▁Store	-11.4919
export	-11.4919
冲动	-11.4919
晃	-11.492
腐败	-11.492
after	-11.492
拿起	-11.4923
年夜	-11.4924
当然是	-11.4926
DNA	-11.4927
傳統	-11.4927
▁provider	-11.493
需要注意	-11.4931
推薦	-11.4931
的语言	-11.4932
▁breakfast	-11.4933
阴阳	-11.4933
OL	-11.4933
週	-11.4937
簡	-11.4938
高度重视	-11.4941
party	-11.4944
淫	-11.4947
▁installed	-11.4948
疫	-11.4948
▁perfectly	-11.495
泊	-11.4951
未知	-11.4951
关系的	-11.4953
头痛	-11.4953
sc	-11.4954
Any	-11.4958
▁Instead	-11.496
样本	-11.4962
河南省	-11.4966
▁discount	-11.4968
暂停	-11.4968
的实际	-11.4968
Man	-11.4969
联动	-11.4969
▁policies	-11.497
立足	-11.4972
task	-11.4976
较好	-11.4976
仅仅是	-11.4977
的认识	-11.498
蝶	-11.498
跟随	-11.4981
▁binding	-11.4982
伞	-11.4983
▁burn	-11.4984
▁processing	-11.4984
gate	-11.4985
腐蚀	-11.4985
如果我	-11.4985
illa	-11.4986
▁carefully	-11.4986
ald	-11.4987
选购	-11.4987
调控	-11.4988
▁saved	-11.4991
▁concerns	-11.4992
pack	-11.4992
▁decrease	-11.4993
火锅	-11.4996
好事	-11.4996
ender	-11.4996
的操作	-11.4997
▁Key	-11.5
借鉴	-11.5002
标记	-11.5003
更高的	-11.5003
娅	-11.5004
▁studio	-11.5004
阴道	-11.5006
高峰	-11.5006
客户的	-11.5007
▁League	-11.5009
▁dollars	-11.5009
▁vacation	-11.501
什么东西	-11.501
NT	-11.501
主持人	-11.501
抖	-11.5012
数十	-11.5012
▁conduct	-11.5012
新能源汽车	-11.5013
▁noticed	-11.5013
忍受	-11.5014
枣	-11.5015
爱你	-11.5017
咳	-11.5018
▁walls	-11.5018
水中	-11.5019
ole	-11.5021
址	-11.5021
扩	-11.5022
的教育	-11.5023
及其他	-11.5023
最具	-11.5024
Number	-11.5024
▁Know	-11.5025
Filter	-11.5028
日军	-11.5029
▁vector	-11.503
耳机	-11.5031
衫	-11.5031
缓缓	-11.5032
崩溃	-11.5032
一共	-11.5032
车站	-11.5033
bu	-11.5034
身体健康	-11.5034
exp	-11.5035
列车	-11.5035
unt	-11.5036
型的	-11.5036
汉语	-11.5037
分裂	-11.5037
议会	-11.5038
的书	-11.5038
▁Mary	-11.5038
▁discussion	-11.5038
beta	-11.5039
▁Chicago	-11.504
▁()	-11.5041
僅	-11.5041
▁PR	-11.5041
监察	-11.5042
配方	-11.5042
ban	-11.5043
▁Services	-11.5043
歇	-11.5043
维度	-11.5045
伸手	-11.5045
▁considering	-11.5045
温和	-11.5046
▁Market	-11.5046
▁affordable	-11.5047
努	-11.5048
▁joint	-11.505
缠	-11.505
python	-11.5051
▁reply	-11.5051
趋	-11.5051
许可证	-11.5051
期刊	-11.5052
感恩	-11.5052
HS	-11.5053
红包	-11.5055
视野	-11.5057
不信	-11.5057
绝大多数	-11.5058
回来了	-11.5058
荣获	-11.5059
media	-11.5059
▁patterns	-11.506
从中	-11.506
勇敢	-11.506
太后	-11.5061
▁plate	-11.5062
肿	-11.5066
負	-11.5067
▁shares	-11.5068
贯	-11.5068
封建	-11.5069
贝尔	-11.5069
▁measured	-11.507
改变了	-11.5072
瑞士	-11.5073
▁pin	-11.5073
▁Does	-11.5074
lam	-11.5074
ISO	-11.5074
床上	-11.5076
ani	-11.5078
毛病	-11.5078
oy	-11.5079
优雅	-11.508
▁exact	-11.5081
▁Cal	-11.5082
弥补	-11.5084
▁cheap	-11.5087
▁Need	-11.5088
攻略	-11.5088
▁speech	-11.5088
揭	-11.5089
▁instructions	-11.5089
▁interaction	-11.5089
亮相	-11.509
前方	-11.509
態	-11.5091
既是	-11.5093
hat	-11.5094
还好	-11.5094
的理由	-11.5095
化解	-11.5096
循	-11.5097
▁den	-11.51
▁Central	-11.51
▁signed	-11.5103
▁happening	-11.5104
糟	-11.5104
▁monthly	-11.5105
debug	-11.5106
奴隶	-11.5106
gl	-11.5107
浑	-11.5108
▁willing	-11.5109
本身的	-11.5109
局长	-11.5109
▁mini	-11.5109
少量	-11.511
年轻的	-11.511
▁Bra	-11.5111
og	-11.5112
这是我	-11.5112
▁ease	-11.5112
畏	-11.5112
叫我	-11.5114
有限公司于	-11.5116
遇见	-11.5116
排水	-11.5116
▁intended	-11.5116
Point	-11.5117
▁revenue	-11.5117
▁aim	-11.5117
Query	-11.5117
score	-11.5118
在家里	-11.5119
同情	-11.5121
vel	-11.5122
一会	-11.5122
到期	-11.5124
超出	-11.5124
运营商	-11.5126
夢	-11.5127
人性	-11.5127
基督教	-11.5127
詹姆斯	-11.5127
越好	-11.5127
可怜	-11.5127
占用	-11.5129
▁tech	-11.513
带给	-11.513
▁Page	-11.5131
所致	-11.5131
来源于	-11.5134
á	-11.5135
白酒	-11.5135
忠诚	-11.5137
阵容	-11.5137
{{	-11.5137
错过	-11.5137
疑惑	-11.5139
▁bigger	-11.514
▁但	-11.5141
日本人	-11.5141
▁jump	-11.5143
Ex	-11.5144
手下	-11.5145
▁massive	-11.5147
▁inbox	-11.5147
半导体	-11.5149
的高度	-11.515
NBA	-11.5151
这个世界	-11.5151
mean	-11.5151
朝着	-11.5153
最小	-11.5155
▁depth	-11.5156
皱	-11.5156
授予	-11.5157
陰	-11.5157
反思	-11.5158
联络	-11.5158
防腐	-11.5159
强势	-11.5163
很多人都	-11.5164
在地上	-11.5164
堤	-11.5165
ind	-11.5166
ku	-11.5166
▁origin	-11.5167
另有	-11.5167
人和	-11.5167
equ	-11.5168
▁mixed	-11.5168
音樂	-11.5169
▁Mu	-11.5171
桩	-11.5172
session	-11.5173
的成本	-11.5174
老鼠	-11.5174
――	-11.5176
告诉他	-11.5176
从小	-11.5176
▁Valley	-11.5177
年开始	-11.5177
shi	-11.5178
医保	-11.5178
哨	-11.5179
爪	-11.5179
小镇	-11.5179
消灭	-11.5179
達到	-11.5179
ata	-11.518
人民群众	-11.5181
＝	-11.5183
爱好	-11.5183
▁Master	-11.5184
已是	-11.5184
完毕	-11.5186
极大的	-11.5186
lly	-11.5187
▁decisions	-11.5189
滨	-11.519
▁motor	-11.519
throw	-11.5191
▁bet	-11.5191
老化	-11.5191
▁Back	-11.5192
博客	-11.5193
▁Family	-11.5193
不符合	-11.5194
▁neck	-11.5194
间接	-11.5195
Related	-11.5195
SL	-11.5195
在哪	-11.5197
习近平	-11.5197
▁Wood	-11.5197
▁Sign	-11.5197
ters	-11.5198
password	-11.5199
ids	-11.52
▁movies	-11.52
扁	-11.5201
參與	-11.5203
▁adults	-11.5204
到时候	-11.5205
灰色	-11.5208
健康的	-11.5208
二者	-11.521
实例	-11.521
的相关	-11.5211
▁advertising	-11.5211
銀行	-11.5212
▁cycle	-11.5213
总监	-11.5213
▁honor	-11.5213
▁moments	-11.5216
▁Code	-11.5217
醫	-11.5218
阔	-11.5218
附加	-11.522
中美	-11.522
▁var	-11.522
nce	-11.5221
劳动者	-11.5222
早餐	-11.5223
勃	-11.5223
Dr	-11.5224
▁inspiration	-11.5227
征服	-11.5227
一幅	-11.5227
班级	-11.5229
▁split	-11.5229
法则	-11.5232
▁outdoor	-11.5232
rie	-11.5233
錯	-11.5234
右手	-11.5234
做成	-11.5235
预警	-11.5236
大海	-11.5236
常用的	-11.5236
淑	-11.5236
申请人	-11.5236
："	-11.5237
參	-11.5237
当今	-11.5238
扎实	-11.5239
名叫	-11.5239
拐	-11.5239
▁lifestyle	-11.5239
LC	-11.524
严格的	-11.524
ient	-11.524
窗户	-11.524
▁relationships	-11.5241
bs	-11.5241
磊	-11.5242
少了	-11.5242
監	-11.5244
TM	-11.5244
船舶	-11.5245
Fill	-11.5247
当成	-11.5248
当日	-11.525
调度	-11.525
妳	-11.5251
用水	-11.5251
RNA	-11.5254
寧	-11.5254
日记	-11.5255
面子	-11.5256
销售额	-11.5257
老是	-11.5257
▁audio	-11.5257
基础上	-11.5257
以下简称	-11.5257
▁glad	-11.5258
共计	-11.5258
杖	-11.526
你现在	-11.5261
▁technical	-11.5262
▁bread	-11.5262
市区	-11.5262
▁tap	-11.5263
▁wearing	-11.5263
▁Bu	-11.5264
▁awesome	-11.5264
多名	-11.5264
长城	-11.5266
越来越多的	-11.5267
資訊	-11.5268
木材	-11.5269
怪物	-11.5271
▁assume	-11.5271
姐妹	-11.5272
未必	-11.5275
ini	-11.5275
市值	-11.5275
隐私	-11.5275
灾难	-11.5277
分公司	-11.5277
规矩	-11.5277
道歉	-11.528
▁Han	-11.528
tar	-11.528
转化为	-11.5281
團隊	-11.5281
透过	-11.5282
ste	-11.5282
▁Men	-11.5284
}^{	-11.5284
▁developing	-11.5284
台上	-11.5285
目前的	-11.5285
的家庭	-11.5286
当他	-11.5286
男的	-11.5286
效力	-11.5286
亲爱的	-11.5288
++)	-11.5289
管理者	-11.529
ric	-11.5292
得意	-11.5293
起身	-11.5293
▁muscle	-11.5297
亲戚	-11.5297
eb	-11.5299
就不能	-11.53
▁Roman	-11.53
独立的	-11.53
肯定会	-11.5301
一对	-11.5303
法师	-11.5304
太过	-11.5305
▁forced	-11.5308
搏	-11.5308
rus	-11.5308
修正	-11.5309
自家	-11.5309
PI	-11.5309
叙述	-11.531
衡量	-11.5311
贯彻落实	-11.5311
lines	-11.5311
不应	-11.5312
海岸	-11.5312
John	-11.5313
先锋	-11.5313
的大小	-11.5313
拘	-11.5314
星期	-11.5314
以其	-11.5315
▁chair	-11.5316
的整体	-11.5317
大队	-11.5317
sch	-11.5318
▁doors	-11.5318
▁args	-11.532
▁brands	-11.532
ome	-11.532
▁brush	-11.5321
夜晚	-11.5323
漏洞	-11.5324
嘴里	-11.5324
钉	-11.5325
▁partners	-11.5325
淘汰	-11.5327
values	-11.5329
▁Ac	-11.5331
得到的	-11.5332
▁Hotel	-11.5333
是一位	-11.5333
前沿	-11.5334
以前的	-11.5334
▁electric	-11.5336
插件	-11.5337
目標	-11.5338
斯坦	-11.5338
▁detailed	-11.5339
▁occur	-11.5339
▁Port	-11.534
小時	-11.534
锅炉	-11.534
想去	-11.5341
季度	-11.5341
▁usual	-11.5342
虚假	-11.5343
的生产	-11.5343
女的	-11.5344
gue	-11.5347
▁concentration	-11.5347
蓋	-11.5349
向他	-11.5349
称号	-11.5349
愤	-11.535
我们现在	-11.535
因子	-11.5351
▁Col	-11.5351
▁shooting	-11.5352
出色	-11.5352
就得	-11.5352
蹲	-11.5353
大国	-11.5355
Int	-11.5356
专注于	-11.5356
Hello	-11.536
▁valuable	-11.536
起点	-11.5362
▁procedure	-11.5363
事业单位	-11.5363
高低	-11.5363
版的	-11.5363
结束了	-11.5363
▁efficient	-11.5363
▁Earth	-11.5364
生活在	-11.5365
庚	-11.5365
parse	-11.5367
破产	-11.5367
▁Council	-11.5371
年内	-11.5371
中山	-11.5372
▁Help	-11.5373
可怕的	-11.5373
▁zero	-11.5374
文化的	-11.5374
喜爱	-11.5375
代价	-11.5376
源于	-11.5377
▁cake	-11.5381
▁claims	-11.5381
不定	-11.5382
螺旋	-11.5383
▁fly	-11.5383
就算是	-11.5383
▁gaming	-11.5383
又能	-11.5384
流畅	-11.5385
不适合	-11.5385
但如果	-11.5386
凝聚	-11.5386
Car	-11.5386
▁rare	-11.5386
新一代	-11.5389
锤	-11.539
▁Bur	-11.5391
设想	-11.5391
售价	-11.5391
▁turning	-11.5393
Column	-11.5393
供电	-11.5394
时期的	-11.5395
冥	-11.5395
城市的	-11.5398
入侵	-11.5398
创办	-11.5399
清新	-11.54
Since	-11.54
▁dangerous	-11.5405
级的	-11.5405
▁kick	-11.5406
孫	-11.5406
走去	-11.5407
外形	-11.5407
流水	-11.5408
阶层	-11.5408
法庭	-11.5409
HD	-11.5409
▁transform	-11.5409
最后的	-11.5409
却没有	-11.5409
多多	-11.541
人也	-11.541
▁apart	-11.541
tree	-11.5412
▁calm	-11.5412
出自	-11.5412
低温	-11.5415
标准的	-11.5417
▁Video	-11.5417
▁Review	-11.5418
ich	-11.5419
一头	-11.542
同一个	-11.5425
局面	-11.5426
科普	-11.5426
▁Max	-11.5431
空白	-11.5432
排出	-11.5433
获奖	-11.5434
终止	-11.5434
▁User	-11.5435
btn	-11.5438
▁parameter	-11.5438
▁entirely	-11.5439
▁restaurants	-11.5439
饲料	-11.5441
收益率	-11.5441
却又	-11.5442
太空	-11.5442
▁reliable	-11.5446
arr	-11.5447
銷	-11.5447
Ca	-11.5447
带头	-11.5448
邻居	-11.5451
离不开	-11.5451
RC	-11.5451
确实是	-11.5451
园林	-11.5453
dr	-11.5454
LP	-11.5456
换了	-11.5457
▁turns	-11.5457
▁dynamic	-11.5457
ano	-11.5458
▁Look	-11.5459
▁Union	-11.5459
FS	-11.5459
机体	-11.5459
▁recorded	-11.5459
麗	-11.546
准则	-11.546
宗旨	-11.5462
在使用	-11.5463
▁frequently	-11.5463
是怎么回事	-11.5464
职场	-11.5465
移植	-11.5467
▁markets	-11.5468
▁totally	-11.5468
▁marriage	-11.5469
ded	-11.547
▁attend	-11.547
哎	-11.5471
百分之	-11.5472
工作室	-11.5472
谁能	-11.5473
▁angle	-11.5474
▁Price	-11.5475
门外	-11.5475
六十	-11.5477
器材	-11.5477
▁household	-11.5477
言语	-11.5477
因为我们	-11.548
Home	-11.548
兼职	-11.548
暑	-11.5481
额度	-11.5482
Free	-11.5482
android	-11.5482
▁battery	-11.5484
▁regions	-11.5484
lip	-11.5485
你需要	-11.5487
pin	-11.5489
评分	-11.549
荆	-11.5491
yn	-11.5491
▁flavor	-11.5491
綠	-11.5492
裁判	-11.5493
词汇	-11.5496
▁mm	-11.5496
erry	-11.5497
ising	-11.5498
应用于	-11.5499
▁external	-11.55
▁Privacy	-11.5501
▁grew	-11.5502
仆	-11.5502
让孩子	-11.5503
党建	-11.5503
屠	-11.5503
发达	-11.5504
▁harm	-11.5504
▁bathroom	-11.5504
可谓	-11.5504
;(	-11.5504
基礎	-11.5505
war	-11.5507
的最	-11.5508
尚书	-11.5509
点评	-11.5512
子的	-11.5513
卧室	-11.5513
Fe	-11.5513
流传	-11.5514
科学技术	-11.5515
碰撞	-11.5516
殊	-11.5517
▁strange	-11.5517
大概是	-11.5518
rupt	-11.5518
我能	-11.5519
特斯拉	-11.5519
的建议	-11.5519
▁consistent	-11.5521
爱国	-11.5521
▁YouTube	-11.5522
刃	-11.5523
外资	-11.5523
不等	-11.5526
▁CEO	-11.5526
桓	-11.5528
制造商	-11.5529
灶	-11.5529
但是他	-11.5531
击败	-11.5533
古人	-11.5535
藝	-11.5535
绝望	-11.5535
校区	-11.5536
▁telling	-11.5537
高质量	-11.5537
辞职	-11.5538
炭	-11.5538
▁μ	-11.5539
▁pitch	-11.5539
月亮	-11.5542
对中国	-11.5542
的成功	-11.5543
援助	-11.5546
蒸汽	-11.5546
又称	-11.5547
的人物	-11.5548
卦	-11.5548
拌	-11.5548
csv	-11.555
铅	-11.555
▁Report	-11.555
▁zone	-11.5551
寇	-11.5553
不好意思	-11.5553
哇	-11.5553
做个	-11.5554
涅	-11.5554
清水	-11.5554
roll	-11.5555
▁flash	-11.5555
亨	-11.5557
▁African	-11.5558
▁yellow	-11.5558
take	-11.556
▁storm	-11.556
前端	-11.556
IR	-11.556
副本	-11.5562
绍	-11.5562
▁Guide	-11.5563
▁honest	-11.5564
辟	-11.5565
PD	-11.5566
五大	-11.5568
的性格	-11.5568
咋	-11.5569
起来的	-11.5569
Another	-11.557
毫	-11.557
比赛中	-11.557
两只	-11.557
如何看待	-11.5572
事宜	-11.5572
安卓	-11.5573
买房	-11.5575
ust	-11.5576
椅	-11.5576
iff	-11.5576
洗净	-11.5576
OC	-11.5579
妊娠	-11.558
GL	-11.558
马克思	-11.558
▁incident	-11.558
Server	-11.558
澳洲	-11.5581
闯	-11.5581
下班	-11.5583
匀	-11.5584
▁extract	-11.5586
▁talent	-11.5586
元年	-11.5586
▁upgrade	-11.5587
诈骗	-11.5589
图标	-11.559
▁laws	-11.5592
能力的	-11.5593
▁picked	-11.5594
队友	-11.5594
所能	-11.5596
走路	-11.5597
▁Fire	-11.5598
我们需要	-11.5598
路由器	-11.5598
之間	-11.5599
服从	-11.5601
HA	-11.5602
under	-11.5603
reg	-11.5606
ros	-11.5607
叙	-11.5607
不出来	-11.5607
针对性	-11.5607
任命	-11.5609
问他	-11.5613
理想的	-11.5614
▁Te	-11.5614
電影	-11.5614
发货	-11.5618
骄傲	-11.5618
争夺	-11.5619
tab	-11.5621
▁planet	-11.5621
两岸	-11.5623
▁Where	-11.5623
▁organic	-11.5624
NC	-11.5624
的房子	-11.5625
▁inspired	-11.5625
禹	-11.5625
妄	-11.5626
▁chocolate	-11.5626
:【	-11.5628
property	-11.5629
sigma	-11.5629
現場	-11.563
摄像头	-11.5632
cer	-11.5632
合肥	-11.5632
跑步	-11.5634
所在地	-11.5636
成立于	-11.5636
漂亮的	-11.5637
助手	-11.5638
全國	-11.5639
▁approximately	-11.5641
▁crash	-11.5642
false	-11.5643
arch	-11.5645
酮	-11.5646
▁alcohol	-11.5648
花生	-11.5651
帮扶	-11.5652
▁department	-11.5653
▁increases	-11.5653
光滑	-11.5654
创业者	-11.5656
she	-11.5658
浑身	-11.566
▁defense	-11.5661
崖	-11.5661
偷偷	-11.5661
伴随着	-11.5663
會議	-11.5664
front	-11.5664
▁forces	-11.5664
存放	-11.5665
等方式	-11.5665
书写	-11.5668
▁Paris	-11.5668
期間	-11.5669
等领域	-11.5669
衬	-11.5669
副作用	-11.567
垄断	-11.567
big	-11.5672
绿化	-11.5672
有何	-11.5672
小子	-11.5673
决定了	-11.5674
▁subscription	-11.5674
▁portion	-11.5675
夜间	-11.5676
▁(!	-11.5676
◆	-11.5676
▁vi	-11.5676
▁lovely	-11.5677
这些都是	-11.5677
▁represent	-11.5678
=\	-11.5679
ime	-11.5679
一带	-11.5679
却不	-11.568
▁token	-11.5681
的条件	-11.5682
推出的	-11.5682
葡萄酒	-11.5683
的理念	-11.5684
重重	-11.5686
Did	-11.5686
▁speaking	-11.5686
一堆	-11.5687
▁enhance	-11.5689
可达	-11.5689
▁ticket	-11.569
往下	-11.5691
坚守	-11.5691
为其	-11.5692
市政	-11.5693
将继续	-11.5693
火焰	-11.5694
但它	-11.5694
RI	-11.5696
▁freedom	-11.5697
一顿	-11.5697
究	-11.5698
监狱	-11.5699
EV	-11.5699
纺织	-11.5702
已经有	-11.5703
ei	-11.5704
关怀	-11.5705
公元	-11.5706
原因是	-11.5707
短短	-11.5707
这些问题	-11.5708
欺	-11.5708
会造成	-11.571
稻	-11.5711
黄河	-11.5713
很喜欢	-11.5714
了几	-11.5715
▁Gra	-11.5715
一双	-11.5715
热烈	-11.5716
nan	-11.5719
dt	-11.5719
▁tasks	-11.5719
▁Gen	-11.5721
▁improved	-11.5721
▁setup	-11.5721
表格	-11.5722
我不是	-11.5723
欲望	-11.5724
逛	-11.5724
images	-11.5724
螺	-11.5725
揚	-11.5726
▁communities	-11.5727
▁thread	-11.5727
脖子	-11.5727
新技术	-11.5729
偶像	-11.573
款式	-11.5731
eo	-11.5731
▁officer	-11.5732
VI	-11.5733
ically	-11.5733
建筑物	-11.5733
先前	-11.5733
不做	-11.5733
▁entertainment	-11.5733
之旅	-11.5734
zi	-11.5735
？？？	-11.5736
except	-11.5737
鞋子	-11.5739
华夏	-11.574
一波	-11.5742
那人	-11.5743
μ	-11.5743
▁imagine	-11.5743
▁powder	-11.5743
今晚	-11.5745
▁navigate	-11.5745
竞技	-11.5747
delete	-11.5747
Method	-11.5748
vy	-11.5748
}{\	-11.5748
經營	-11.5748
▁district	-11.5749
邱	-11.575
巡视	-11.5754
▁dish	-11.5754
美联储	-11.5755
堵塞	-11.5757
ena	-11.5758
诸侯	-11.5758
Out	-11.576
嘉宾	-11.5762
ics	-11.5762
新聞	-11.5763
不通	-11.5766
美人	-11.577
En	-11.5771
▁association	-11.5772
进球	-11.5772
再来	-11.5774
南海	-11.5775
就诊	-11.5776
-\	-11.5777
▁administration	-11.5777
lab	-11.5777
豫	-11.5778
屁	-11.5779
any	-11.5779
注定	-11.5781
▁Christian	-11.5781
可以让	-11.5783
备用	-11.5783
化妆	-11.5784
幹	-11.5784
mathcal	-11.5785
阻碍	-11.5785
泄	-11.5786
▁impossible	-11.5786
▁twenty	-11.5787
习近平总书记	-11.5787
▁boys	-11.5788
▁bottle	-11.5788
家伙	-11.5789
▁smell	-11.5791
陌生	-11.5792
看待	-11.5792
▁dental	-11.5794
一带一路	-11.5796
躺在	-11.5796
在全国	-11.5796
▁Hill	-11.5798
ess	-11.58
詞	-11.5801
ami	-11.5801
颖	-11.5801
▁tells	-11.5801
行動	-11.5802
纠正	-11.5802
帘	-11.5804
他们是	-11.5804
收回	-11.5805
▁mainly	-11.5805
Li	-11.5806
▁parking	-11.5807
概率	-11.5807
cle	-11.5807
eta	-11.5808
纠结	-11.5809
荣耀	-11.5809
论述	-11.581
走上	-11.5811
救助	-11.5811
七年	-11.5812
▁election	-11.5812
▁surgery	-11.5813
幽默	-11.5813
水晶	-11.5816
▁Cup	-11.5817
入门	-11.5817
这意味着	-11.5817
渠	-11.5818
焦点	-11.5818
多的	-11.5819
某某	-11.5824
无穷	-11.5827
Instance	-11.5828
OT	-11.583
Session	-11.5831
▁appreciate	-11.5831
哪种	-11.5832
无人机	-11.5833
身體	-11.5833
桌上	-11.5833
智能手机	-11.5836
钻石	-11.5837
派出所	-11.5837
眠	-11.5838
日晚	-11.5839
相对于	-11.584
有权	-11.584
缩小	-11.584
兜	-11.5842
平行	-11.5842
悲剧	-11.5843
▁liquid	-11.5844
Before	-11.5844
剩	-11.5846
▁kit	-11.5847
滞	-11.5847
的出现	-11.5848
两边	-11.5852
名词	-11.5852
▁silver	-11.5854
▁crisis	-11.5854
售后服务	-11.5855
Attribute	-11.5855
绒	-11.5856
▁Russia	-11.5856
帶來	-11.5858
不会有	-11.5858
食品安全	-11.5859
也需要	-11.586
▁consumers	-11.586
are	-11.586
煞	-11.5861
▁plane	-11.5862
序列	-11.5863
▁Auto	-11.5864
的程度	-11.5865
题主	-11.5866
;【	-11.5866
▁Object	-11.5867
片刻	-11.5867
分明	-11.5869
opt	-11.5869
庶	-11.5869
▁Lee	-11.587
加载	-11.587
common	-11.587
车主	-11.5872
的成绩	-11.5873
开始了	-11.5874
给孩子	-11.5874
▁repeat	-11.5874
光线	-11.5874
视角	-11.5875
汽車	-11.5876
領域	-11.5877
参照	-11.5877
的本质	-11.5877
中期	-11.5878
▁charged	-11.5879
测定	-11.5881
▁mountain	-11.5881
国防	-11.5882
▁examples	-11.5883
好像是	-11.5883
注意力	-11.5884
▁rep	-11.5885
▁Old	-11.5885
进入了	-11.5886
瞎	-11.5887
▁Americans	-11.5888
XX	-11.5889
▁Journal	-11.5891
ula	-11.5891
▁Casino	-11.5893
君主	-11.5893
疯	-11.5894
纲	-11.5894
~~~	-11.5894
``	-11.5895
二手	-11.5895
调解	-11.5899
▁conference	-11.59
恶意	-11.59
开头	-11.5901
▁apartment	-11.5901
历程	-11.5901
学问	-11.5901
當時	-11.5902
涉及到	-11.5902
价位	-11.5904
极限	-11.5906
遥	-11.5907
区间	-11.5909
▁errors	-11.5909
修建	-11.5909
€	-11.591
▁Try	-11.5912
cp	-11.5913
经济增长	-11.5914
服务业	-11.5914
她就	-11.5914
隧道	-11.5915
沉淀	-11.5915
▁Learn	-11.5916
动脉	-11.5917
丢失	-11.5917
难过	-11.5918
变为	-11.5919
心思	-11.592
惑	-11.592
破解	-11.5921
▁sector	-11.5922
勉强	-11.5922
eal	-11.5923
均可	-11.5924
docs	-11.5927
三月	-11.5928
▁reduction	-11.5929
桐	-11.593
语法	-11.5936
力的	-11.5936
▁units	-11.5937
为什么会	-11.5938
dom	-11.5939
▁operations	-11.594
我希望	-11.594
万一	-11.594
▁Min	-11.5941
拱	-11.5945
▁weak	-11.5946
的感受	-11.5947
{}	-11.5948
匪	-11.5948
导弹	-11.5949
pet	-11.5949
对他们	-11.595
核算	-11.595
创造了	-11.5951
造成了	-11.5953
RP	-11.5953
▁decades	-11.5953
的父亲	-11.5955
全局	-11.5956
光伏	-11.5961
圆形	-11.5964
izer	-11.5965
Chapter	-11.5965
只有一个	-11.5966
狀	-11.5968
▁Network	-11.5968
可能性	-11.5969
在她	-11.5969
共和国	-11.5971
一小	-11.5971
很多的	-11.5972
为他	-11.5973
Sa	-11.5977
军官	-11.5977
来自于	-11.5978
▁launched	-11.5979
申請	-11.5981
余额	-11.5982
▁favourite	-11.5984
▁▁▁▁▁▁▁▁▁▁▁▁	-11.5985
修订	-11.5985
笨	-11.5989
一聲	-11.5989
的回答	-11.5989
▁echo	-11.599
固然	-11.5992
▁agency	-11.5993
食堂	-11.5994
Part	-11.5995
▁ends	-11.5997
交易所	-11.5998
压迫	-11.6006
BL	-11.6007
Di	-11.6007
▁q	-11.6008
家用	-11.6008
信念	-11.6009
人类的	-11.6009
\"	-11.6009
再去	-11.601
开学	-11.6011
指向	-11.6012
论证	-11.6012
修炼	-11.6013
Mr	-11.6013
管家	-11.6014
很是	-11.6014
▁emergency	-11.6016
的人都	-11.6016
睿	-11.6017
利亚	-11.6017
▁frequency	-11.6017
学到	-11.6018
爺	-11.6018
电磁	-11.6019
多大	-11.6019
之家	-11.6019
▁obvious	-11.602
开创	-11.6021
碟	-11.6021
难受	-11.6022
ied	-11.6022
▁noted	-11.6023
相关部门	-11.6029
▁depends	-11.6031
童年	-11.6031
福州	-11.6031
▁teach	-11.6033
起步	-11.6033
▁labor	-11.6033
狮	-11.6033
倚	-11.6033
now	-11.6033
机的	-11.6033
对立	-11.6034
mes	-11.6035
▁Miss	-11.6036
theta	-11.6036
▁pandemic	-11.6036
▁truck	-11.6039
余人	-11.604
▁destination	-11.604
echo	-11.6041
喘	-11.6042
▁creation	-11.6042
登上	-11.6042
▁Another	-11.6044
裴	-11.6045
phone	-11.6046
▁gap	-11.6046
▁reader	-11.6046
也许是	-11.6048
乞	-11.6048
▁calculated	-11.6051
买家	-11.6054
▁strike	-11.6054
小小的	-11.6055
一夜	-11.6055
'))	-11.6057
地质	-11.6058
普通人	-11.6059
阵地	-11.606
一分	-11.606
除外	-11.6061
die	-11.6065
側	-11.6065
氟	-11.6066
▁Pay	-11.6066
倡导	-11.6067
▁NOT	-11.6067
▁capture	-11.6068
斥	-11.6068
▁definition	-11.607
etic	-11.607
even	-11.607
前途	-11.607
没有办法	-11.6071
▁designs	-11.6072
Task	-11.6072
▁module	-11.6073
欧阳	-11.6075
谨	-11.6075
悲伤	-11.6075
詩	-11.6075
〉	-11.6076
也可能	-11.6076
国会	-11.6076
▁infection	-11.6077
在学校	-11.6079
起来了	-11.608
▁tip	-11.608
元件	-11.6081
天猫	-11.6082
信息技术	-11.6085
冈	-11.6088
▁End	-11.6088
桌子	-11.6089
腦	-11.6092
塵	-11.6093
壹	-11.6093
这座	-11.6093
直观	-11.6094
的收入	-11.6096
董事会	-11.6098
fill	-11.61
应付	-11.61
就去	-11.6101
敦	-11.6102
疾病的	-11.6103
先行	-11.6104
▁prison	-11.6104
大方	-11.6104
了解一下	-11.6105
他想	-11.6105
还款	-11.6108
逗	-11.6109
din	-11.6109
▁conflict	-11.611
▁characteristics	-11.611
:"	-11.611
甘肃	-11.6111
規	-11.6111
command	-11.6113
小孩子	-11.6115
太多了	-11.6116
投标	-11.6117
做出了	-11.612
服务的	-11.6121
度过	-11.6121
▁tissue	-11.6123
Provider	-11.6123
每人	-11.6125
三千	-11.6126
为什么不	-11.6129
各项工作	-11.613
▁ta	-11.6131
跨越	-11.6131
凡是	-11.6131
勇气	-11.6131
▁dropped	-11.6133
業務	-11.6134
銷售	-11.6135
鮮	-11.6135
▁premium	-11.6136
底层	-11.6137
撰写	-11.6138
▁Russian	-11.6138
就越	-11.6138
ken	-11.6139
▁begins	-11.614
橋	-11.6141
▁neighborhood	-11.6143
round	-11.6145
BB	-11.6145
怎么回事	-11.6147
骨折	-11.6148
精致	-11.6148
顧	-11.6149
榮	-11.6149
▁suddenly	-11.6149
制成	-11.615
價值	-11.6151
对我们	-11.6153
膨胀	-11.6154
厄	-11.6155
有關	-11.6156
tle	-11.6156
▁breast	-11.6157
谕	-11.6157
独自	-11.6157
機構	-11.6158
TER	-11.6158
Android	-11.6159
本网	-11.616
共识	-11.6161
▁regularly	-11.6161
▁remained	-11.6162
庫	-11.6162
▁例	-11.6163
ography	-11.6163
used	-11.6163
朋	-11.6163
適合	-11.6164
千万不要	-11.6164
洗澡	-11.6164
英格兰	-11.6168
GO	-11.617
颂	-11.617
Good	-11.617
▁installation	-11.617
用到	-11.6171
▁Qu	-11.6171
的前	-11.6171
内蒙古	-11.6171
年中国	-11.6172
ute	-11.6173
CN	-11.6174
病因	-11.6175
工業	-11.6177
bound	-11.6177
寬	-11.6177
卖出	-11.6178
yo	-11.6178
揽	-11.6179
##	-11.6179
how	-11.6181
▁Place	-11.6183
职员	-11.6183
IG	-11.6184
她也	-11.6184
微生物	-11.6185
▁license	-11.6186
三百	-11.6186
共建	-11.6188
格外	-11.6191
▁steel	-11.6191
屆	-11.6191
scope	-11.6192
▁Western	-11.6193
GF	-11.6195
华人	-11.6197
写道	-11.6197
绘	-11.6198
FI	-11.6201
喜欢的	-11.6203
▁gambling	-11.6203
須	-11.6204
▁proof	-11.6204
cher	-11.6204
的实力	-11.6204
本周	-11.6206
隐患	-11.6206
▁mechanism	-11.6207
往来	-11.6207
还不错	-11.6208
戚	-11.6208
а	-11.6209
▁narrow	-11.6209
▁bath	-11.6209
▁conducted	-11.621
？」「	-11.6211
Ad	-11.6211
三级	-11.6213
宁波	-11.6213
change	-11.6215
的材料	-11.6216
▁Public	-11.6217
ett	-11.622
ison	-11.622
LI	-11.6221
日后	-11.6222
高科技	-11.6222
外贸	-11.6224
历史的	-11.6225
身为	-11.6225
的合作	-11.6225
鉴于	-11.6225
执政	-11.6226
下属	-11.6227
调试	-11.6227
IM	-11.6228
太平洋	-11.6228
▁youth	-11.6228
▁Class	-11.6229
=(	-11.6229
是这样的	-11.623
描绘	-11.6232
Entity	-11.6233
杠杆	-11.6233
投资人	-11.6233
等多种	-11.6234
廢	-11.6235
SUV	-11.6235
新年	-11.6235
足够的	-11.6236
舰队	-11.6237
本公司	-11.6238
竞争对手	-11.6238
实质	-11.6239
振动	-11.624
BI	-11.6241
▁Shop	-11.6241
县城	-11.6242
没了	-11.6242
廳	-11.6243
以色列	-11.6244
春季	-11.6245
duct	-11.6245
▁incredible	-11.6247
妥	-11.625
▁Congress	-11.625
胺	-11.6251
▁warning	-11.6251
你们的	-11.6251
ering	-11.6252
展会	-11.6253
一个问题	-11.6253
学的	-11.6254
着他	-11.6254
师范大学	-11.6254
的需要	-11.6254
饿	-11.6255
▁pure	-11.6258
Connection	-11.6259
▁agreed	-11.6259
▁estimated	-11.626
来做	-11.626
▁Pan	-11.6261
弘扬	-11.6263
▁resistance	-11.6263
▁believed	-11.6263
如果不是	-11.6264
▁formula	-11.6264
Command	-11.6265
数百	-11.6266
分辨率	-11.6267
GC	-11.6268
震惊	-11.6268
的主题	-11.627
笛	-11.6271
▁resolution	-11.6271
▁convenient	-11.6273
接入	-11.6275
出资	-11.6275
ML	-11.6276
儀	-11.6277
▁sad	-11.6277
▁drawing	-11.6277
His	-11.6278
▁argument	-11.628
Cr	-11.6281
之力	-11.6281
▁craft	-11.6283
素材	-11.6284
▁magic	-11.6286
計劃	-11.6286
條件	-11.6286
不由	-11.6287
千年	-11.6289
什么事	-11.6289
sin	-11.6289
compile	-11.629
▁extended	-11.6291
▁functionalities	-11.6291
每個	-11.6291
呕吐	-11.6291
models	-11.6292
▁approved	-11.6292
屑	-11.6292
▁po	-11.6292
间隔	-11.6293
的动作	-11.6296
]{	-11.6297
nch	-11.6297
▁king	-11.6299
▁searching	-11.6301
▁successfully	-11.6301
唱歌	-11.6302
sure	-11.6302
较少	-11.6303
▁strategies	-11.6304
煙	-11.6304
就必须	-11.6304
公众号	-11.6305
进行治疗	-11.6305
④	-11.6305
AG	-11.6306
burg	-11.6306
藍	-11.6307
熟悉的	-11.6307
▁tooth	-11.6307
可靠性	-11.6308
在乎	-11.6308
▁marked	-11.6309
▁crack	-11.6309
一键	-11.6309
▁corresponding	-11.6311
▁其实	-11.6311
wing	-11.6313
对称	-11.6313
______	-11.6313
样式	-11.6313
壓力	-11.6314
承载	-11.6316
▁electronic	-11.6317
▁crew	-11.6317
▁sick	-11.6319
何时	-11.632
反抗	-11.632
仍有	-11.6321
▁escape	-11.6321
▁operating	-11.6322
的习惯	-11.6322
▁broad	-11.6322
▁chapter	-11.6324
的心态	-11.6325
▁tall	-11.6326
平台上	-11.6326
生病	-11.6326
芒	-11.6327
研究中心	-11.6329
概括	-11.633
襄	-11.633
tel	-11.6331
sys	-11.6331
丧失	-11.6333
易于	-11.6335
angle	-11.6335
▁现在	-11.6336
愣	-11.6336
▁tumor	-11.6337
脱贫攻坚	-11.6337
心想	-11.6337
叔叔	-11.6337
入选	-11.6337
盼	-11.6337
五金	-11.6338
小事	-11.6339
出国	-11.6339
itch	-11.6343
ration	-11.6344
践行	-11.6344
的女儿	-11.6345
▁teachers	-11.6346
real	-11.6346
rit	-11.6347
spec	-11.6348
其所	-11.6348
▁constantly	-11.6348
滩	-11.6349
即是	-11.6349
▁receiving	-11.6351
訪	-11.6351
牛皮癣	-11.6352
亲密	-11.6353
▁trail	-11.6353
要不要	-11.6354
▁std	-11.6357
▁shut	-11.6357
获悉	-11.6357
蜡	-11.6358
还有就是	-11.6358
▁keeps	-11.6358
汇率	-11.6358
提及	-11.6358
▁expand	-11.636
女神	-11.636
从来	-11.636
制约	-11.6364
皇家	-11.6364
ense	-11.6365
不允许	-11.6367
Over	-11.6367
TT	-11.6368
▁nearby	-11.6369
▁maintenance	-11.637
着手	-11.6371
的法律	-11.6371
的经历	-11.6371
▁guest	-11.6372
科学的	-11.6372
▁Maybe	-11.6374
的前提下	-11.6374
▁gate	-11.6375
你这	-11.6376
▁Type	-11.6377
▁typical	-11.6378
上一	-11.6378
▁matrix	-11.6379
纤	-11.638
的根本	-11.6381
暑假	-11.6381
工地	-11.6382
欺骗	-11.6383
copy	-11.6384
保安	-11.6385
风雨	-11.6385
ural	-11.6386
▁refund	-11.6386
▁unable	-11.6387
▁brief	-11.6388
那样的	-11.6388
不爱	-11.639
▁assistance	-11.6391
延迟	-11.6391
警惕	-11.6392
对方的	-11.6393
ctx	-11.6394
都不是	-11.6396
谈论	-11.6396
好吃	-11.6398
▁Martin	-11.6398
阿拉伯	-11.6399
带上	-11.6399
所有人都	-11.6401
Hz	-11.6402
爱的	-11.6403
橙	-11.6404
▁promise	-11.6404
Call	-11.6405
的业务	-11.6405
每一位	-11.6406
专辑	-11.6407
优良	-11.6408
哈尔滨	-11.6409
八年	-11.641
学费	-11.6412
期权	-11.6412
谜	-11.6413
▁fitness	-11.6413
OD	-11.6415
柔软	-11.6416
世间	-11.6416
加班	-11.6417
操纵	-11.6417
的健康	-11.6418
▁Figure	-11.6419
▁bridge	-11.6419
吸附	-11.6419
搭载	-11.642
▁configuration	-11.6421
ination	-11.6421
shed	-11.6421
猜测	-11.6421
▁Inter	-11.6421
▁Natural	-11.6421
面的	-11.6422
慶	-11.6423
审美	-11.6424
example	-11.6424
下一	-11.6425
誓	-11.6425
anda	-11.6426
裸	-11.6427
眼神	-11.6427
天堂	-11.6429
女主	-11.6429
基金会	-11.643
的费用	-11.6431
▁losing	-11.6433
bed	-11.6434
并购	-11.6434
麟	-11.6434
简洁	-11.6435
结局	-11.6435
▁holds	-11.6437
ced	-11.6438
▁celebrate	-11.6438
目的地	-11.6438
▁accurate	-11.6439
贸	-11.6439
尧	-11.6439
▁algorithm	-11.6442
▁suggests	-11.6442
▁exposure	-11.6442
分区	-11.6443
有不少	-11.6445
▁def	-11.6445
河北省	-11.6446
是不会	-11.6446
首要	-11.6446
廖	-11.6447
▁furniture	-11.6447
珍珠	-11.6447
ert	-11.6447
显现	-11.6449
▁mono	-11.6449
下来的	-11.645
LL	-11.645
潜在	-11.645
看了看	-11.6451
刷新	-11.6451
否认	-11.6454
在这种	-11.6454
▁severe	-11.6455
彩色	-11.6456
会引起	-11.6457
实在是	-11.6457
一所	-11.6457
是非	-11.6457
燃气	-11.6458
指点	-11.6458
▁till	-11.6459
缓存	-11.6459
严峻	-11.646
脊	-11.646
挣	-11.6461
▁virus	-11.6461
▁poll	-11.6462
引起了	-11.6462
▁bo	-11.6464
▁hire	-11.6466
ject	-11.6467
杠	-11.6467
气息	-11.6468
apache	-11.6468
彈	-11.6468
开户	-11.6468
▁executive	-11.6469
▁television	-11.6471
明确的	-11.6472
安全的	-11.6474
▁buffer	-11.6474
寂寞	-11.6475
督促	-11.6475
▁UI	-11.6475
自愿	-11.6477
玩的	-11.6478
紧紧	-11.6478
成熟的	-11.6479
▁sharp	-11.648
自行车	-11.6481
象征	-11.6483
原谅	-11.6483
身心	-11.6483
庸	-11.6484
▁editor	-11.6485
来到了	-11.6486
▁concern	-11.6487
生的	-11.6488
▁realized	-11.6488
的趋势	-11.6488
ving	-11.6488
▁beer	-11.6488
▁environmental	-11.649
End	-11.6491
梗	-11.6491
▁responsibility	-11.6491
辱	-11.6492
精华	-11.6493
很高的	-11.6493
工夫	-11.6494
过高	-11.6494
iness	-11.6495
xx	-11.6497
穩定	-11.6498
▁documents	-11.6498
▁tiny	-11.6498
▁Sh	-11.6499
俞	-11.6499
喉	-11.6499
▁birthday	-11.6501
看的	-11.6501
日常生活	-11.6502
大厦	-11.6503
▁upcoming	-11.6505
課程	-11.6505
邀	-11.6506
cept	-11.6507
马克	-11.6507
推理	-11.6507
▁</	-11.6508
几十年	-11.6508
负债	-11.6508
刑事	-11.6508
▁shoes	-11.651
业界	-11.651
失眠	-11.651
▁Name	-11.651
初级	-11.6511
Json	-11.6512
另外一个	-11.6513
▁resulting	-11.6513
cut	-11.6516
顺便	-11.6517
捡	-11.6517
四川省	-11.6519
Document	-11.6519
跟她	-11.6519
请教	-11.652
技术和	-11.652
▁Association	-11.6522
相继	-11.6523
桃花	-11.6523
简化	-11.6526
外卖	-11.6527
員工	-11.6527
▁loves	-11.6528
也无法	-11.6528
些什么	-11.6529
为准	-11.6529
可是我	-11.653
edge	-11.653
▁inner	-11.6531
狮子	-11.6532
村里	-11.6533
▁processes	-11.6534
prop	-11.6536
注释	-11.6536
再也	-11.6536
每一次	-11.6537
底线	-11.6537
▁festival	-11.6537
▁symbol	-11.6538
我院	-11.6538
▁officers	-11.6539
驴	-11.6539
尽力	-11.654
▁machines	-11.6541
▁ancient	-11.6541
数组	-11.6542
rum	-11.6542
▁carbon	-11.6543
祝你	-11.6543
你说的	-11.6543
的文件	-11.6543
坐下	-11.6544
当地的	-11.6544
隱	-11.6545
座位	-11.6546
神圣	-11.6547
指引	-11.6547
告诉记者	-11.6548
首批	-11.6548
▁Its	-11.6551
凭证	-11.6552
google	-11.6552
▁houses	-11.6553
上游	-11.6553
两名	-11.6553
▁aspects	-11.6555
奧	-11.6556
▁kid	-11.6559
场比赛	-11.6559
表彰	-11.656
▁formed	-11.6561
gamma	-11.6562
▁functional	-11.6563
▁absolute	-11.6563
fire	-11.6563
▁choosing	-11.6563
拼命	-11.6565
自治	-11.6565
ave	-11.6566
但她	-11.6566
不便	-11.6566
湿度	-11.6566
Book	-11.6568
結合	-11.6568
▁Fi	-11.6568
GT	-11.6568
的事实	-11.6568
数值	-11.6568
ao	-11.6569
十月	-11.6569
党组织	-11.6569
device	-11.6569
电阻	-11.657
莊	-11.657
▁weekly	-11.657
罚款	-11.6571
▁therapy	-11.6571
SK	-11.6571
▁appointment	-11.6571
吸引了	-11.6572
▁combine	-11.6572
wan	-11.6575
得不到	-11.6577
甲醛	-11.6578
骨干	-11.6578
時候	-11.6579
▁visiting	-11.6579
必需	-11.6579
ched	-11.6579
tes	-11.658
蒲	-11.6583
拉斯	-11.6583
钠	-11.6584
▁Pat	-11.6585
这么做	-11.6585
窦	-11.6586
站点	-11.6586
Load	-11.6586
市场需求	-11.6586
▁OS	-11.6587
吳	-11.6588
面膜	-11.6588
之情	-11.6588
▁male	-11.6589
脆弱	-11.659
不开	-11.6591
大专	-11.6591
表現	-11.6592
饭店	-11.6595
的印象	-11.6595
隨著	-11.6596
▁Games	-11.6596
坪	-11.6596
陣	-11.6599
好转	-11.6599
已经在	-11.66
大军	-11.66
车子	-11.66
雀	-11.66
卡尔	-11.6601
▁hosting	-11.6601
▁Studio	-11.6601
▁grass	-11.6601
财政部	-11.6602
life	-11.6603
▁gear	-11.6603
pending	-11.6605
可靠的	-11.6606
在未来	-11.6606
肺炎	-11.6607
络	-11.6608
农场	-11.6608
土豆	-11.6608
的母亲	-11.6608
▁identity	-11.6609
▁bond	-11.661
骑兵	-11.6612
tau	-11.6612
▁folder	-11.6613
使用者	-11.6615
▁fourth	-11.6616
奎	-11.6616
实战	-11.6617
开源	-11.6617
对了	-11.6618
将成为	-11.6618
很清楚	-11.662
回国	-11.662
追究	-11.6621
grad	-11.6621
▁sport	-11.6624
优越	-11.6624
▁tight	-11.6624
有无	-11.6624
▁passing	-11.6627
阻力	-11.6628
全县	-11.6629
法制	-11.663
types	-11.6631
本站	-11.6632
选拔	-11.6632
sur	-11.6632
上看	-11.6632
五月	-11.6633
妇科	-11.6634
绝缘	-11.6635
证件	-11.6636
准备好	-11.6636
▁lights	-11.6636
▁experiments	-11.6637
大学的	-11.6637
乃是	-11.6637
主办	-11.6638
的总	-11.6638
恒大	-11.6638
较好的	-11.6638
就像是	-11.6639
時代	-11.6639
途中	-11.6641
▁loans	-11.6641
的传统	-11.6643
▁committed	-11.6643
见了	-11.6643
他们都	-11.6643
兑	-11.6645
粤	-11.6645
▁Security	-11.6646
▁afford	-11.6648
仲裁	-11.6649
stop	-11.6651
窑	-11.6651
卑	-11.6651
地道	-11.6652
媚	-11.6653
大局	-11.6654
嗣	-11.6656
劈	-11.6656
电网	-11.6658
DO	-11.6658
弧	-11.6658
▁drivers	-11.6659
的战略	-11.6661
负荷	-11.6661
坐着	-11.6664
默默	-11.6664
UC	-11.6665
▁MA	-11.6665
購買	-11.6666
的资金	-11.6667
是我的	-11.6669
材料的	-11.667
draw	-11.667
transform	-11.6672
Unit	-11.6675
爱好者	-11.6676
预备	-11.6676
▁Party	-11.6676
他不	-11.6676
▁interact	-11.6677
即时	-11.6677
▁stable	-11.6677
支配	-11.6678
听着	-11.6679
行使	-11.668
蓉	-11.6681
▁Japanese	-11.6681
耍	-11.6681
音频	-11.6681
大神	-11.6683
miss	-11.6683
厕所	-11.6685
▁technique	-11.6685
▁oven	-11.6686
我不想	-11.6687
▁appeal	-11.6687
掌控	-11.6688
▁recovery	-11.6688
世上	-11.6689
管理工作	-11.6689
震撼	-11.669
我妈	-11.669
播出	-11.6691
善良	-11.6692
党员干部	-11.6692
▁Op	-11.6692
弊	-11.6692
Update	-11.6693
。「	-11.6693
lg	-11.6693
梦见	-11.6694
彼得	-11.6695
说不定	-11.6695
▁peak	-11.6695
香味	-11.6696
出场	-11.6697
均有	-11.6697
特种	-11.6697
俺	-11.6698
涵盖	-11.6698
▁Sal	-11.6698
的可能	-11.67
捐赠	-11.6702
门窗	-11.6703
items	-11.6703
任职	-11.6703
就會	-11.6704
▁stated	-11.6705
来临	-11.6707
局势	-11.6708
全文	-11.6709
签名	-11.671
謝	-11.671
抛弃	-11.6711
还有一些	-11.6711
广泛的	-11.6711
Take	-11.6714
▁Land	-11.6714
侨	-11.6715
死去	-11.6715
任何一个	-11.6716
▁possibility	-11.6716
额外	-11.6716
阳性	-11.6716
填充	-11.6717
娟	-11.6717
大批	-11.672
規定	-11.672
悄悄	-11.672
晚期	-11.6721
▁contents	-11.6723
绪	-11.6723
上半年	-11.6725
游戏中	-11.6726
不僅	-11.6726
少许	-11.6727
比我	-11.6727
厌	-11.6727
▁eggs	-11.6728
第三个	-11.6729
熟练	-11.673
▁NULL	-11.673
知名度	-11.6731
妾	-11.6731
线条	-11.6731
MD	-11.6731
CON	-11.6731
Delta	-11.6732
山水	-11.6732
林业	-11.6732
▁pleasure	-11.6736
现在是	-11.6736
軟	-11.6736
恶劣	-11.6737
▁Cat	-11.6738
兴起	-11.6742
▁mask	-11.6743
可以把	-11.6744
sia	-11.6745
▁Ed	-11.6745
closed	-11.6747
▁cutting	-11.6747
主义者	-11.6748
向下	-11.6749
▁shower	-11.6749
▁Ph	-11.675
Module	-11.675
在做	-11.6751
通行	-11.6751
▁formation	-11.6752
非常重要	-11.6752
Even	-11.6753
各种各样的	-11.6753
刚好	-11.6754
打出	-11.6754
遇到了	-11.6754
派出	-11.6754
爸	-11.6755
奶粉	-11.6756
▁authors	-11.6757
了她	-11.6759
羡慕	-11.6759
stat	-11.6761
楼梯	-11.6762
我就是	-11.6762
奥运会	-11.6763
泻	-11.6763
听力	-11.6764
轿车	-11.6764
Label	-11.6764
藩	-11.6765
lay	-11.6766
聚会	-11.6766
gal	-11.6766
▁Women	-11.6769
積	-11.6769
▁emotional	-11.6769
不下	-11.677
于此	-11.677
▁Right	-11.6772
CG	-11.6772
促销	-11.6773
在下	-11.6775
沙发	-11.6776
都不能	-11.6776
cre	-11.6777
閃	-11.6777
问问	-11.6777
知道自己	-11.6778
▁hang	-11.6779
兼容	-11.6779
死的	-11.6779
也不要	-11.678
多项	-11.678
total	-11.678
pdf	-11.6781
感应	-11.6781
〈	-11.6784
TI	-11.6785
▁raw	-11.6786
职称	-11.679
▁watched	-11.679
沙漠	-11.679
▁juice	-11.6791
▁Point	-11.6791
盒子	-11.6793
国际化	-11.6795
note	-11.6795
。。。。	-11.6795
很明显	-11.6798
相當	-11.6798
▁Tour	-11.6798
科學	-11.6798
提议	-11.6798
室外	-11.68
开工	-11.6802
ike	-11.6803
AN	-11.6804
▁concerned	-11.6804
▁le	-11.6805
ular	-11.6806
▁vital	-11.6806
人流	-11.6806
喜好	-11.6808
我感觉	-11.6809
乾隆	-11.6809
折磨	-11.6809
朔	-11.681
塊	-11.6811
)=	-11.6813
婷	-11.6814
很高兴	-11.6814
最后一	-11.6814
公布的	-11.6815
各有	-11.6815
指责	-11.6816
可知	-11.6816
不来	-11.6816
实地	-11.6817
长达	-11.6817
知道的	-11.6818
▁Th	-11.6819
公元前	-11.6823
▁interests	-11.6824
ress	-11.6825
▁Pu	-11.6825
▁golf	-11.6826
▁Bro	-11.6827
特别的	-11.6827
▁agents	-11.6828
▁th	-11.6828
▁fighting	-11.6828
dies	-11.6829
■	-11.683
中外	-11.683
歌词	-11.6832
龙头	-11.6833
▁dating	-11.6835
About	-11.6836
bal	-11.6837
冤	-11.6838
争论	-11.6838
人才培养	-11.6839
分析师	-11.684
从来不	-11.684
▁monitor	-11.6841
▁professionals	-11.6841
了一种	-11.6842
概	-11.6843
▁delete	-11.6843
▁sizes	-11.6844
▁val	-11.6844
減少	-11.6845
近几年	-11.6847
器的	-11.6848
process	-11.6848
子公司	-11.6848
年级	-11.685
▁percentage	-11.6851
句子	-11.6852
Comp	-11.6852
平方	-11.6852
每天都	-11.6853
率领	-11.6853
拯救	-11.6853
▁spin	-11.6854
▁Van	-11.6854
所说	-11.6854
Top	-11.6855
要求的	-11.6856
演唱	-11.6856
现任	-11.6857
的距离	-11.6859
条件的	-11.6859
▁Camp	-11.6859
新品	-11.6859
▁accuracy	-11.686
teen	-11.686
窃	-11.6861
掠	-11.6861
体温	-11.6861
優惠	-11.6862
光学	-11.6862
EP	-11.6863
勇士	-11.6864
我們的	-11.6865
差点	-11.6866
▁seed	-11.6867
简历	-11.6868
口中	-11.6869
彻	-11.6869
▁minor	-11.687
▁dining	-11.687
随之	-11.687
中最	-11.6871
命题	-11.6871
rest	-11.6872
为大家	-11.6873
tribu	-11.6874
▁rid	-11.6874
场面	-11.6875
但由于	-11.6875
▁missed	-11.6876
道具	-11.6876
BR	-11.6877
有很大的	-11.6878
▁award	-11.6878
▁refer	-11.688
▁Asia	-11.6885
媒體	-11.6885
▁Angeles	-11.6886
協	-11.6887
党中央	-11.6887
dist	-11.6888
呈现出	-11.6891
三角	-11.6891
Java	-11.6891
楼上	-11.6892
▁practical	-11.6893
猪肉	-11.6894
不停	-11.6894
都已经	-11.6894
′	-11.6895
▁Alex	-11.6901
了自己	-11.6901
眾	-11.6902
▁accepted	-11.6902
网站的	-11.6903
▁Shi	-11.6903
tmp	-11.6903
醒来	-11.6903
绑	-11.6904
在今年	-11.6904
本文摘要	-11.6905
＋	-11.6905
太阳能	-11.6905
发展趋势	-11.6906
foo	-11.6906
▁tone	-11.6906
▁Garden	-11.6906
那個	-11.6906
你应该	-11.6908
匆匆	-11.6908
Net	-11.691
Does	-11.691
責任	-11.6911
优质的	-11.6911
绑定	-11.6911
发烧	-11.6914
我省	-11.6914
Si	-11.6915
▁activation	-11.6915
可以从	-11.6916
缴费	-11.6916
pk	-11.6917
没能	-11.6918
utter	-11.6919
形式的	-11.6919
▁letters	-11.6919
gra	-11.692
▁efficiency	-11.6922
看他	-11.6922
▁adjust	-11.6926
抑	-11.6926
将近	-11.6927
導致	-11.6927
得上	-11.6928
三位	-11.6928
gan	-11.6928
▁graph	-11.693
买入	-11.693
在大	-11.6931
人们对	-11.6932
前行	-11.6933
▁strain	-11.6933
资本市场	-11.6933
”）	-11.6933
原有	-11.6934
村庄	-11.6936
事后	-11.6936
▁contribute	-11.6936
度假	-11.6936
▁Ser	-11.6936
▁ban	-11.6936
大自然	-11.6938
要多	-11.6939
是一	-11.694
政务	-11.694
淀粉	-11.694
还真	-11.6941
▁Richard	-11.6941
南昌	-11.6942
说起	-11.6942
▁fer	-11.6943
▁wash	-11.6944
的那样	-11.6947
▁Head	-11.6949
伴有	-11.695
km	-11.695
▁violence	-11.695
大了	-11.695
第八	-11.695
培训班	-11.695
▁permission	-11.6953
自助	-11.6954
不稳定	-11.6956
能看到	-11.6956
务必	-11.6956
▁rental	-11.6956
耐磨	-11.6957
]);	-11.6958
服饰	-11.6959
▁crucial	-11.696
GS	-11.696
▁Gi	-11.696
▁mortgage	-11.6961
電腦	-11.6961
交通运输	-11.6963
量化	-11.6963
剥	-11.6964
▁intention	-11.6965
town	-11.6965
本届	-11.6965
▁matters	-11.6966
yan	-11.6966
各省	-11.6967
威廉	-11.6967
Other	-11.6971
毁灭	-11.6972
比喻	-11.6973
▁poly	-11.6974
▁br	-11.6975
▁Thomas	-11.6975
保密	-11.6977
▁answered	-11.6978
搬家	-11.6979
管理人员	-11.6979
▁它	-11.6979
讲的	-11.698
▁breaking	-11.6982
JS	-11.6984
▁crime	-11.6984
中等	-11.6985
韓	-11.6985
控制器	-11.6986
督导	-11.6986
唯有	-11.6987
圆满	-11.6987
此处	-11.6987
▁afraid	-11.6988
轮胎	-11.6989
合伙人	-11.699
得好	-11.6992
▁Wall	-11.6993
嘴巴	-11.6993
充分利用	-11.6993
过大	-11.6995
connect	-11.6996
列入	-11.6996
我用	-11.6997
▁container	-11.6997
▁thousand	-11.6998
婴	-11.6999
頓	-11.7
开来	-11.7
▁whenever	-11.7002
▁episode	-11.7002
random	-11.7004
墨西哥	-11.7004
细腻	-11.7005
全球化	-11.7006
免疫力	-11.7007
浙	-11.7008
rey	-11.7009
▁sentence	-11.7009
左手	-11.7009
成立了	-11.7009
zz	-11.701
簿	-11.7011
▁topics	-11.7011
媳妇	-11.7012
誠	-11.7013
▁el	-11.7014
sky	-11.7014
₂	-11.7015
包围	-11.7015
公安机关	-11.7016
新车	-11.7017
开水	-11.7017
羞	-11.7018
▁facing	-11.7018
▁Second	-11.702
为我们	-11.702
增进	-11.702
的药物	-11.7022
▁wire	-11.7024
政府的	-11.7024
layout	-11.7027
▁finance	-11.7028
▁painting	-11.7029
▁json	-11.7029
到医院	-11.703
答复	-11.7031
▁interior	-11.7031
eration	-11.7032
▁Us	-11.7032
財	-11.7032
按时	-11.7032
事儿	-11.7033
制药	-11.7033
▁predict	-11.7035
保證	-11.7036
几何	-11.7037
长春	-11.7037
再到	-11.7037
后面的	-11.7037
份额	-11.7037
操控	-11.7038
他要	-11.7038
咯	-11.7038
▁exists	-11.7039
▁surprised	-11.7039
邮政	-11.704
的主	-11.704
航班	-11.704
認	-11.704
Version	-11.704
一间	-11.704
敢于	-11.7042
▁feelings	-11.7042
痴	-11.7042
把手	-11.7042
▁legs	-11.7042
element	-11.7043
要不	-11.7044
犹如	-11.7044
走访	-11.7045
搅	-11.7045
天的	-11.7045
字体	-11.7046
有几个	-11.7047
▁codes	-11.7047
被告	-11.7048
▁blow	-11.7049
秘书长	-11.7049
分歧	-11.7049
研讨	-11.705
是比较	-11.7051
那个人	-11.7051
▁William	-11.7053
镜子	-11.7055
留下了	-11.7055
纯粹	-11.7055
力气	-11.7055
▁android	-11.7056
》(	-11.7056
▁Johnson	-11.7058
喔	-11.7059
首发	-11.7061
风水	-11.7061
秉承	-11.7062
深处	-11.7062
表白	-11.7063
Figure	-11.7064
史上	-11.7065
成为一个	-11.7065
珠宝	-11.7065
▁vary	-11.7065
▁coast	-11.7066
HO	-11.7066
acc	-11.7066
已知	-11.7067
strong	-11.7067
综合性	-11.7067
老師	-11.7068
other	-11.7069
▁Nor	-11.7069
▁Cu	-11.7069
ision	-11.707
这两种	-11.707
Order	-11.707
呼吁	-11.7071
兰州	-11.7073
▁meta	-11.7073
仍然是	-11.7075
自学	-11.7075
一期	-11.7076
▁bool	-11.7076
濕	-11.7077
▁effectively	-11.7078
法律法规	-11.7078
转动	-11.7078
走在	-11.7079
的销售	-11.7079
▁protected	-11.7081
的网站	-11.7082
Also	-11.7083
说实话	-11.7084
并无	-11.7084
臨	-11.7085
▁quote	-11.7085
的兴趣	-11.7086
而出	-11.7086
▁hall	-11.7087
▁shoulder	-11.7087
好朋友	-11.7088
▁Ly	-11.7089
最重要的是	-11.7089
▁Chris	-11.709
七十	-11.7091
站起来	-11.7092
的工具	-11.7092
星星	-11.7093
以至于	-11.7093
手中的	-11.7093
调动	-11.7094
▁shouldn	-11.7095
飯	-11.7095
特定的	-11.7096
仓储	-11.7097
裹	-11.7097
接受了	-11.7097
散热	-11.7099
班主任	-11.7099
便秘	-11.7099
cmd	-11.7099
汽油	-11.7101
▁indicate	-11.7101
震荡	-11.7101
姨	-11.7101
会觉得	-11.7103
▁criminal	-11.7105
▁iOS	-11.7105
second	-11.7106
.__	-11.7106
ved	-11.7106
then	-11.7106
庞大的	-11.7106
管理的	-11.7107
替换	-11.7108
又不	-11.7109
▁strip	-11.7109
▁abuse	-11.711
理智	-11.711
用法	-11.711
那儿	-11.711
雕塑	-11.7112
触发	-11.7114
▁NO	-11.7115
ux	-11.7115
▁adventure	-11.7116
所在的	-11.7116
下车	-11.7118
至此	-11.7118
十万	-11.7122
END	-11.7125
用什么	-11.7125
▁Mike	-11.7126
▁replacement	-11.7126
過程中	-11.7127
使我	-11.7128
也知道	-11.7128
分鐘	-11.7128
FO	-11.713
几位	-11.7131
时空	-11.7131
领导干部	-11.7131
▁density	-11.7131
国的	-11.7132
Location	-11.7133
▲	-11.7133
▁loud	-11.7134
可以帮助	-11.7137
執	-11.7139
Join	-11.714
的职业	-11.7141
歷	-11.7141
▁worst	-11.7141
勞	-11.7142
流失	-11.7142
品質	-11.7143
▁attacks	-11.7144
阴影	-11.7145
的未来	-11.7146
犹太人	-11.7147
制冷	-11.7147
树脂	-11.7147
我来	-11.7148
挣扎	-11.7148
△	-11.7148
ington	-11.7149
业内	-11.7149
药物治疗	-11.715
▁PM	-11.715
就此	-11.715
新华社	-11.7153
▁tank	-11.7153
▁Model	-11.7154
回落	-11.7154
开发者	-11.7155
▁Last	-11.7155
波兰	-11.7155
VM	-11.7156
主播	-11.7156
现在已经	-11.7157
我才	-11.7157
诊疗	-11.7157
▁dust	-11.7162
識	-11.7163
空军	-11.7163
悠	-11.7164
▁Mer	-11.7166
▁rear	-11.7167
素养	-11.7169
的有效	-11.717
官兵	-11.7171
screen	-11.7172
remove	-11.7173
趙	-11.7174
年至	-11.7174
斯基	-11.7175
人們	-11.7177
温馨	-11.7177
传染	-11.7178
▁domestic	-11.7178
最有	-11.7179
尼亚	-11.7179
资深	-11.7181
只得	-11.7181
履	-11.7182
▁covers	-11.7182
lig	-11.7182
$\	-11.7183
彬	-11.7184
北大	-11.7184
地方政府	-11.7185
躺	-11.7185
乔治	-11.7185
oid	-11.7186
bool	-11.7187
内置	-11.7188
▁prop	-11.7189
人大	-11.7189
Po	-11.719
最快	-11.7192
折扣	-11.7192
▁platforms	-11.7193
^\	-11.7194
▁studied	-11.7194
檢查	-11.7194
喻	-11.7196
诱惑	-11.7196
不断提高	-11.7196
gr	-11.7197
spect	-11.7197
▁somewhere	-11.7198
剧烈	-11.72
▁meals	-11.72
是一個	-11.72
汇总	-11.7201
的水平	-11.7203
矫正	-11.7205
的命运	-11.7206
▁scheme	-11.7207
▁Those	-11.7208
▁ordered	-11.7209
条约	-11.7209
Description	-11.7209
时常	-11.7209
经济学家	-11.721
乌克兰	-11.7211
携	-11.7211
先是	-11.7211
寒冷	-11.7212
qua	-11.7212
最少	-11.7212
的情形	-11.7213
请你	-11.7213
艇	-11.7214
的结构	-11.7214
的艺术	-11.7214
▁Jan	-11.7218
avi	-11.7219
陸	-11.7219
太原	-11.7219
个人的	-11.7219
摆放	-11.722
使用了	-11.722
有一点	-11.7221
▁Obama	-11.7221
共产党	-11.7222
▁Police	-11.7222
就很	-11.7224
[...]
